// MNIST Quantized Weights - 8-bit Signed Packed
// Each line: 32-bit = [W3:W2:W1:W0]
// 10 neurons × 196 weight groups = 1960 lines

000000FD
000000F2
00000008
00000007
000000F0
00000008
00000007
000000E4
000000FE
000000DA
000000D3
000000E5
000000F4
000000FC
000000EF
000000F0
000000DB
000000CD
000000B2
000000BB
000000AD
0000009B
0000009F
00000083
00000084
0000009B
000000C4
000000D9
000000F6
000000E6
000000B5
000000B5
000000DD
000000CC
00000008
00000011
0000001D
000000FC
000000E8
000000CD
00000096
0000008E
000000F5
000000CB
000000C4
000000D2
000000C9
000000FD
00000022
00000033
00000057
0000003C
00000005
00000019
00000080
00000080
00000008
000000EE
000000CF
000000D2
000000EE
000000F0
0000000B
00000030
00000057
00000056
0000001F
00000022
000000B8
00000080
00000010
000000E0
000000B6
000000FD
000000F5
00000006
00000016
000000A7
000000B1
00000030
00000028
00000063
00000014
0000009B
00000005
000000CA
000000F4
00000018
000000FB
00000025
000000AA
00000080
00000080
000000D7
00000010
00000071
0000005C
000000D0
000000DA
000000AA
0000001C
00000044
0000003F
0000002A
00000080
00000080
00000080
000000F1
0000001B
00000055
00000048
000000A4
000000DB
00000082
00000025
00000030
00000065
0000002B
00000080
00000080
000000BC
000000FD
00000011
00000025
0000000D
000000D6
00000010
00000080
000000EF
00000025
00000045
0000003A
00000097
000000BF
000000FA
000000F8
00000003
000000FC
000000E3
000000D5
000000FF
000000B5
000000F5
00000008
0000002E
00000062
00000021
00000003
000000F1
000000CC
000000EA
000000E8
000000B3
00000014
00000009
00000096
000000C9
00000015
00000027
0000004D
0000005B
00000037
000000F8
000000D7
000000B4
000000BD
000000D6
00000012
000000F5
000000DB
000000B0
00000093
000000B7
000000D6
000000E0
000000C6
00000086
00000080
00000080
00000090
000000C8
0000000C
00000013
00000008
000000D6
00000092
00000080
00000080
00000080
00000080
00000080
0000009D
000000C6
000000E6
000000FD
000000F4
000000F9
000000F9
00000003
000000E4
000000E3
000000E8
000000D9
00000004
000000E9
000000E4
00000004
000000F5
000000FB
000000F1
000000F2
0000001A
000000D8
000000C5
00000094
00000080
000000BD
000000F1
000000D6
0000008D
00000080
0000009D
000000B8
000000F9
0000000F
00000029
000000EF
000000DE
0000009D
000000D4
00000022
00000008
000000C9
00000008
00000041
00000019
000000CE
000000B9
000000F5
000000FA
000000D1
000000AC
00000080
000000AB
000000DA
000000C1
000000A0
000000E7
00000011
000000E0
00000080
000000C2
000000EC
000000CD
000000B1
000000AF
00000085
000000A5
000000DF
0000004B
0000000D
000000CB
000000B5
00000080
00000080
00000080
0000001F
000000C9
000000C0
000000A0
000000B9
0000009C
000000F8
0000007F
00000023
000000A5
00000080
00000080
00000080
000000C0
0000000A
000000F7
000000EB
000000E2
000000B7
00000080
000000FD
0000007F
000000F9
0000008A
000000AC
000000A7
00000080
000000D1
000000F2
00000004
000000AF
000000B0
0000009E
00000080
00000044
0000007F
00000094
00000080
00000080
0000008C
000000AE
000000D5
0000000E
000000D3
0000008B
00000080
000000A3
000000AD
00000058
0000005D
00000080
00000080
000000B4
000000A7
000000AA
000000D2
0000000C
000000AC
00000080
00000081
000000E3
00000002
0000005F
00000023
0000009D
000000D2
000000EA
000000CE
000000E7
000000E8
00000008
000000E0
000000DF
000000F2
00000002
000000F9
000000E9
000000F3
000000FB
0000000E
000000E6
000000C7
000000DF
000000EC
0000001E
000000C8
0000005B
00000046
0000000F
000000B0
0000008C
000000FB
00000051
00000008
000000D4
000000BE
000000DC
0000002D
000000F3
000000D2
000000DF
000000B7
00000093
00000080
00000080
00000080
000000AA
000000F0
000000EE
000000CA
000000E1
0000000D
00000013
000000FE
000000C6
00000095
00000086
00000080
00000080
00000080
00000082
000000C8
000000D2
000000CB
0000000C
000000F7
000000F8
00000005
000000E1
000000F0
000000E5
000000C3
000000B4
000000FC
00000022
000000C3
000000DD
000000F3
0000000F
000000F3
000000F3
000000F4
000000D9
0000000C
0000001E
0000004E
00000043
00000026
00000014
000000DB
0000009C
000000A2
000000E4
000000F5
00000007
000000EC
000000F4
00000034
0000005B
0000004B
00000064
0000004E
00000056
00000006
000000D0
00000093
00000080
000000CB
000000CF
00000007
0000003A
0000002D
0000002E
00000030
00000017
00000026
00000001
00000003
000000E6
000000AB
00000080
00000093
000000EE
000000FB
00000033
00000014
00000002
00000020
00000005
0000001D
0000000E
000000FC
000000E7
000000DB
00000080
000000AB
000000D1
00000010
000000F5
000000A4
0000008B
00000080
00000080
00000097
000000ED
000000FC
000000FB
000000C3
000000A6
000000FE
000000FA
000000CB
00000080
00000080
00000080
00000080
00000080
00000080
000000A3
000000E2
000000E0
0000009D
00000029
00000053
000000D6
00000003
000000A8
000000B5
000000CD
000000F4
00000028
000000FB
000000E1
000000D6
000000D3
000000B7
0000004D
00000074
000000E4
00000026
00000044
0000002B
00000015
00000049
00000052
00000022
0000000F
000000FD
000000F6
00000039
0000007F
0000007F
000000E4
000000F2
0000004D
00000051
00000029
00000041
0000004D
0000002A
00000012
00000010
00000031
00000049
0000007F
00000052
000000E7
00000010
00000024
0000002D
00000044
0000003A
00000013
000000E6
00000013
00000037
0000003D
0000006C
0000006D
0000004F
000000EF
00000007
000000FF
00000014
00000017
000000FE
000000DE
000000BC
000000F0
00000043
0000003A
0000003A
0000003C
000000F6
00000012
000000A3
00000080
00000080
00000080
00000080
000000AC
000000C5
000000AD
000000C4
000000D0
000000F2
0000003D
000000FF
000000F6
000000F3
000000C0
00000090
00000080
00000080
00000080
00000080
0000008A
00000080
00000097
000000B6
000000F3
00000014
000000F3
00000013
000000E8
000000EC
00000000
000000F4
000000E5
000000C4
000000C6
000000E0
000000E8
000000EB
00000013
000000FC
00000003
000000F8
00000024
0000001E
000000FD
00000030
00000045
00000046
0000001D
00000017
000000F0
00000086
000000B0
000000E1
00000001
0000001D
0000005E
0000004E
0000004C
0000003B
0000003D
00000018
00000018
000000EA
000000B4
00000080
00000080
000000BC
0000001F
00000041
00000070
00000043
00000037
00000025
0000002E
00000036
00000015
00000007
000000EB
00000090
00000080
00000098
000000FD
0000003C
0000005F
00000014
000000F1
000000BF
000000C1
0000004A
00000039
0000002E
00000028
000000CD
00000080
00000088
000000EC
0000004D
00000001
000000A1
00000080
00000080
000000D3
0000004D
00000042
00000035
00000015
000000BF
00000080
000000B9
000000C7
000000FD
000000A5
00000080
0000009A
000000C9
0000002F
00000038
00000022
000000ED
00000094
00000080
00000080
000000BE
0000000B
0000000B
000000E3
00000083
00000099
000000DA
00000022
00000000
000000EC
00000014
00000007
000000DB
000000B5
000000C5
00000019
00000062
0000003B
000000B9
00000080
00000080
000000AF
000000AA
000000FB
00000031
00000031
0000002B
000000CC
000000A0
0000000D
0000007F
00000066
0000000E
000000BA
00000080
00000080
000000CE
0000003E
0000004B
00000047
00000018
00000096
0000008B
00000012
0000007B
00000062
00000054
00000020
000000D4
000000D7
00000004
0000002E
00000036
00000018
000000CD
00000080
000000D1
00000006
00000061
00000059
00000034
00000017
00000018
000000F5
00000011
000000FE
00000019
000000D1
000000AF
000000A0
00000008
00000011
00000026
00000057
0000007F
00000069
00000072
00000058
00000021
000000FB
000000DA
000000BF
000000C7
000000DA
000000FD
00000013
000000DA
000000E7
000000F7
000000E1
000000DB
000000CF
000000B6
000000CF
000000DD
000000FE
000000D5
00000008
000000F3
000000F7
00000012
000000E4
000000BC
000000AF
00000094
0000008C
000000D2
0000008B
00000095
000000CB
000000E6
000000F0
000000EF
000000FE
000000CD
000000C1
000000B9
00000080
00000080
00000080
00000080
00000080
0000009A
000000C9
000000C1
000000D0
000000EB
0000000F
000000E8
00000019
00000008
000000D6
000000A2
00000093
000000C4
000000F8
00000015
0000001E
00000056
00000032
000000BA
000000F5
000000E9
00000013
0000001A
000000F2
000000C4
00000080
00000080
00000080
000000CC
000000ED
00000055
0000001B
000000F5
000000DC
000000BB
000000EE
000000D8
000000D6
000000C8
000000A5
00000080
000000B3
000000E5
000000EB
000000EA
00000096
0000009F
000000C6
000000A8
000000B5
000000DE
00000025
00000047
000000F3
00000080
00000036
000000FF
000000CC
000000AA
00000080
0000008E
000000DE
000000B8
000000F1
00000044
0000006A
0000007F
00000008
000000DF
00000059
00000026
00000007
000000EF
000000B2
000000CC
000000E3
00000004
00000035
00000063
0000006A
00000072
0000001A
0000002B
0000007F
00000060
00000030
000000EB
000000BB
000000CD
000000FC
000000B5
000000E5
0000004D
0000004D
000000FF
0000002D
0000007E
00000070
0000000E
000000F9
000000D6
000000A6
000000DC
000000D8
000000A7
000000A3
0000009B
0000009D
00000086
000000FC
00000046
000000F7
000000BF
000000AB
00000080
00000080
000000E1
00000002
000000B8
0000008D
00000080
00000080
00000080
000000AA
000000E7
000000DD
000000CD
000000DF
000000AA
000000C7
000000DF
000000E6
000000C9
00000080
00000091
000000B0
000000CA
000000C6
000000DC
00000011
0000002C
00000025
00000000
000000E2
0000000C
0000000E
000000F1
000000AA
000000A9
000000C6
000000BC
00000096
000000AF
000000A8
000000D9
000000E3
000000DD
000000D1
000000EB
00000013
000000FE
000000D8
00000099
00000080
00000080
00000080
00000080
00000080
00000080
00000080
000000B8
000000F9
00000005
000000EB
00000011
00000007
00000000
000000DB
000000E2
000000CE
000000C2
000000AB
000000CD
000000EC
000000FF
000000F5
0000000C
00000009
000000F4
000000DA
000000B2
000000AA
00000097
000000A3
000000D4
000000DE
00000009
00000008
00000003
000000F9
0000000F
000000F0
000000CE
00000080
000000B9
000000C3
000000DE
000000CC
000000E3
0000000C
00000027
00000011
00000042
00000063
00000035
000000D7
00000095
00000083
000000DB
00000004
0000002C
00000007
000000F3
000000F8
00000020
00000027
00000051
0000007F
00000073
000000D9
00000080
00000080
000000E1
00000025
0000003A
0000000C
000000C1
000000AD
000000ED
0000002B
0000007F
0000007F
0000007F
000000BE
00000089
000000DD
0000001D
00000036
00000063
0000006C
000000F2
00000090
00000080
00000080
000000ED
0000007F
0000007F
000000EC
000000C4
0000001C
0000002A
00000029
00000070
0000005D
000000D8
00000080
0000009F
00000080
00000080
00000080
00000032
000000FA
000000D0
000000D1
000000C2
000000FD
00000049
00000009
0000009E
00000095
000000DF
000000EA
000000B7
000000BA
000000A0
000000F5
000000F8
000000EC
000000B5
00000080
00000089
0000008D
0000009D
000000E0
0000000D
0000000E
00000009
00000002
000000B8
000000E1
000000E0
00000025
0000004D
000000EE
000000AF
000000CF
00000001
000000F8
0000000D
0000000B
00000020
0000000C
000000BF
000000E6
000000EE
000000FD
00000027
00000042
0000002D
0000000E
000000F1
00000022
0000000C
00000023
0000004B
000000FB
000000FC
000000E9
000000EC
000000F0
000000CD
00000014
00000020
00000024
0000002D
00000010
00000014
00000014
00000014
00000009
0000000E
0000000C
00000017
000000E3
000000E3
00000005
00000034
0000003C
00000016
000000FA
000000EF
000000F0
00000009
00000003
000000FC
00000014
000000DF
000000CA
000000A7
000000A7
000000E5
000000E4
000000C5
000000C4
000000C7
000000E6
000000F5
000000E0
00000005
0000000D
00000004
00000015
00000034
00000032
0000004F
0000006C
00000026
0000001A
00000052
0000003D
0000002D
000000F9
00000006
000000FA
00000027
00000016
00000052
0000004A
0000006B
0000004B
0000004D
0000004C
0000007F
00000067
0000006B
0000003E
0000001C
000000FE
000000D9
000000DF
000000F0
000000FA
000000DA
000000DD
000000E6
0000002B
0000005B
00000078
0000004F
00000019
0000000A
000000FF
000000B7
000000CF
000000E8
000000EC
000000B9
000000B2
000000C1
000000B0
000000B3
000000CA
000000BD
000000E5
000000CE
000000FA
000000B2
000000A5
000000CB
000000CC
000000D0
000000B9
000000C1
00000080
00000080
00000080
00000080
00000080
00000085
000000DD
00000093
000000B8
000000FA
00000007
00000002
00000000
00000080
00000080
00000083
000000CC
0000000C
000000AA
00000080
000000D1
000000AC
000000F8
00000038
00000021
00000035
0000001A
000000B2
000000E3
000000D4
0000001F
00000076
00000032
00000084
000000EC
0000009C
000000E2
0000001A
0000002C
0000005B
00000003
00000019
000000F4
000000E0
0000001F
0000005D
00000017
00000082
000000F9
00000086
00000096
00000009
00000044
0000007F
0000001D
000000F6
000000D2
00000009
00000007
00000005
000000CB
00000080
000000F7
00000080
00000080
000000DB
00000035
00000077
00000052
00000019
0000002B
0000003A
0000000D
000000E8
000000AC
000000A4
000000FB
0000008E
00000080
0000008D
000000E9
00000059
0000007F
0000006F
00000053
00000017
000000EC
000000B1
000000B0
000000DF
0000000F
000000B6
00000080
00000080
0000008A
000000AD
000000D4
000000E2
000000B8
000000C4
000000AD
00000090
00000099
00000000
000000F4
000000E5
000000AA
00000080
00000080
00000080
00000080
00000080
00000080
00000080
00000080
00000080
000000C1
000000FB
000000F0
00000007
000000CD
000000D6
000000A3
000000AC
00000086
00000080
00000080
0000009F
000000C0
000000E2
000000EA
00000006
00000010
000000F7
000000FE
000000FD
000000D1
000000C5
000000CE
000000C3
000000C8
000000DA
000000ED
000000F3
0000000D
000000F9
00000003
000000FE
000000ED
00000099
00000080
00000080
00000080
00000080
00000080
00000080
000000A6
000000A9
000000D6
000000F9
000000F5
000000F7
000000EE
000000DA
000000BA
00000085
00000080
00000080
00000080
00000080
00000080
00000080
00000080
000000CF
00000004
00000037
0000002D
0000004B
00000040
00000040
000000FC
000000CF
000000DC
000000E4
000000D6
000000A9
00000080
00000080
0000003A
00000050
0000004A
00000041
0000003C
00000042
0000003C
00000056
0000007F
00000057
00000025
000000DD
00000080
000000AD
00000032
00000079
00000051
000000FF
00000001
00000022
0000001B
00000069
0000007F
00000051
0000001B
000000E2
00000080
000000BA
00000035
00000074
00000045
0000000D
000000F3
00000080
00000080
000000A7
00000038
00000027
0000000A
000000EA
000000B7
0000000B
00000013
00000040
0000000D
000000E0
000000AD
00000080
00000080
000000B6
00000030
0000005A
00000051
00000026
000000DE
0000009D
000000F2
000000F7
00000007
000000E6
000000A4
00000080
000000C5
00000003
00000028
00000037
00000017
000000E3
000000BA
000000FD
0000000E
000000E3
000000C7
00000080
00000080
00000093
00000011
00000019
000000BD
000000BC
0000008F
00000080
000000A2
000000F2
00000001
00000080
00000082
00000084
000000A8
000000D1
00000012
000000F9
000000AA
00000080
00000080
00000080
000000A1
000000C7
000000EC
000000A3
000000F2
00000015
000000F8
000000E7
000000DC
000000E8
000000DA
0000009C
00000080
00000080
000000BA
000000E0
00000010
0000001F
00000063
0000006F
00000062
00000057
0000004F
00000057
00000034
000000F5
000000C9
000000BA
000000C8
000000F3
00000015
000000FB
000000F9
0000001A
0000004F
0000005A
00000055
00000076
0000007F
0000005E
0000000C
00000013
0000000E
0000000C
000000FA
00000007
000000F9
00000009
000000D8
000000D7
000000D4
000000BE
000000AA
000000B5
000000CD
000000F3
0000000E
00000011
000000F9
000000CF
000000D2
000000B9
0000008A
00000080
00000080
00000080
00000080
0000008F
000000B3
000000E1
000000E9
000000F4
000000EE
000000C6
0000008A
000000B7
000000D7
000000F3
0000001B
00000039
0000002C
0000000D
000000E9
000000BB
000000FA
00000009
000000D6
000000B0
000000AD
000000DF
000000ED
00000007
00000006
00000025
00000015
00000007
00000010
00000018
00000007
0000000A
000000C6
000000C2
00000002
00000022
00000039
00000028
000000FF
000000AD
000000CC
00000014
00000020
00000028
000000FE
000000F3
000000CC
000000B3
0000001B
0000003B
0000005A
00000044
0000003D
000000D2
000000BB
00000002
0000003D
0000005B
000000F5
00000013
000000E1
000000E1
00000012
00000008
000000FB
000000ED
0000005F
00000036
00000005
000000F8
00000028
00000031
0000003B
00000006
000000DB
000000AE
00000094
00000082
00000080
000000E3
0000006F
0000003A
000000E4
000000B8
00000095
000000A2
000000B3
000000A7
000000D3
000000A9
00000080
000000B5
00000015
00000037
0000005E
000000F4
000000DB
000000A7
000000AD
000000B9
000000C7
00000080
000000C6
00000080
000000A7
000000FD
00000043
00000037
000000ED
000000CB
000000D6
000000E3
000000F2
00000005
000000B4
000000AB
000000EA
00000080
000000D7
00000019
000000F6
000000DE
000000E3
000000DF
000000D4
000000FD
000000FD
0000000B
0000008A
000000AF
000000E8
000000AF
0000008D
000000D6
00000001
00000022
00000058
0000005C
00000028
0000002B
00000012
000000EF
000000A4
000000E3
000000FA
000000D7
00000080
00000080
000000BD
000000FA
00000018
0000002D
00000022
00000020
00000009
000000CB
000000C0
000000F3
00000015
000000F3
000000B1
00000094
00000098
00000080
00000080
00000080
00000080
00000080
00000093
000000BD
000000F0
000000FD
00000003
000000ED
000000FF
000000F5
000000DD
000000C7
000000AB
000000DB
000000D3
000000C3
000000E5
000000F3
000000FA
000000F1
000000F8
000000DA
000000DF
000000B5
00000080
00000080
00000080
00000080
00000080
00000080
00000080
000000BC
000000CF
000000E4
0000000B
000000D1
00000098
00000080
00000080
0000009C
000000AB
00000080
00000080
00000080
00000080
00000080
00000080
000000C3
000000E9
00000087
00000080
00000080
0000009D
000000F2
0000002A
0000007F
00000056
00000004
000000C7
00000080
00000080
00000080
000000C2
00000080
00000085
000000C8
000000E5
00000006
00000032
00000046
00000016
000000EC
000000D0
0000008A
00000080
00000080
000000B5
00000091
000000F7
00000030
00000035
00000047
000000CB
000000B9
00000009
0000003B
00000037
000000EC
00000080
000000A0
000000AC
000000D4
0000005B
00000046
00000044
0000000B
000000DB
0000004F
0000006C
0000007E
00000060
0000001A
00000080
000000AE
000000D5
000000E9
0000002F
00000017
00000003
000000FA
000000EF
0000000B
00000074
0000001A
000000EA
0000008E
00000080
000000BB
000000CB
000000E1
000000FC
000000EF
00000021
0000001C
000000C6
000000EE
00000023
000000DA
000000AD
00000082
00000080
000000CD
000000E0
0000008B
0000008C
000000B9
000000BC
000000B2
000000B8
00000008
000000DF
000000D3
000000C8
00000081
00000080
000000C4
000000ED
0000008F
000000B5
00000099
00000084
00000080
000000A9
000000DD
000000B3
000000C4
000000C5
000000DE
000000FF
000000D8
000000E5
000000B7
000000AD
000000B3
000000DC
000000DD
000000CA
000000AD
000000B9
000000CC
00000021
0000002C
00000011
000000DE
00000001
000000C9
0000000C
00000030
0000002F
00000026
0000000D
000000FF
0000003F
00000061
0000007F
00000062
00000004
000000F5
00000009
00000012
00000046
0000005A
00000049
0000005E
00000051
00000061
00000037
00000047
0000003A
00000005
00000019
00000004
