// MNIST Quantized Weights - Packed Format
// Each line: [W3][W2][W1][W0]

0708F2FD
E40708F0
E5D3DAFE
F0EFFCF4
BBB2CDDB
839F9BAD
D9C49B84
B5B5E6F6
1108CCDD
CDE8FC1D
CBF58E96
FDC9D2C4
3C573322
80801905
D2CFEE08
300BF0EE
221F5657
E01080B8
06F5FDB6
30B1A716
9B146328
18F4CA05
80AA25FB
7110D780
AADAD05C
2A3F441C
F1808080
A448551B
302582DB
80802B65
2511FDBC
8010D60D
3A4525EF
F8FABF97
D5E3FC03
08F5B5FF
0321622E
E8EACCF1
960914B3
4D2715C9
D7F8375B
12D6BDB4
93B0DBF5
C6E0D6B7
90808086
08130CC8
808092D6
9D808080
F4FDE6C6
E403F9F9
04D9E8E3
F504E4E9
1AF2F1FB
8094C5D8
8DD6F1BD
F9B89D80
DEEF290F
0822D49D
194108C9
FAF5B9CE
AB80ACD1
E7A0C1DA
C280E011
AFB1CDEC
4BDFA585
80B5CB0D
C91F8080
9CB9A0C0
A5237FF8
C0808080
E2EBF70A
7FFD80B7
A7AC8AF9
04F2D180
809EB0AF
80947F44
D5AE8C80
808BD30E
5D58ADA3
A7B48080
AC0CD2AA
02E38180
D29D235F
E8E7CEEA
F2DFE008
F3E9F902
C7E60EFB
C81EECDF
B00F465B
0851FB8C
2DDCBED4
B7DFD2F3
80808093
CAEEF0AA
FE130DE1
808695C6
C8828080
F70CCBD2
F0E105F8
FCB4C3E5
F3DDC322
F4F3F30F
4E1E0CD9
DB142643
F5E4A29C
34F4EC07
4E644B5B
93D00656
07CFCB80
302E2D3A
03012617
9380ABE6
1433FBEE
1D052002
DBE7FC0E
10D1AB80
808BA4F5
FCED9780
FEA6C3FB
8080CBFA
80808080
9DE0E2A3
03D65329
F4CDB5A8
D6E1FB28
744DB7D3
2B4426E4
22524915
39F6FD0F
F2E47F7F
4129514D
10122A4D
527F4931
2D2410E7
E6133A44
6C3D3713
07EF4F6D
FE1714FF
43F0BCDE
F63C3A3A
8080A312
C5AC8080
F2D0C4AD
F3F6FF3D
808090C0
808A8080
14F3B697
ECE813F3
C4E5F400
EBE8E0C6
F803FC13
30FD1E24
171D4645
E1B086F0
4E5E1D01
183D3B4C
80B4EA18
411FBC80
25374370
0715362E
988090EB
145F3CFD
4AC1BFF1
CD282E39
4DEC8880
8080A101
35424DD3
B980BF15
80A5FDC7
382FC99A
8094ED22
0B0BBE80
DA9983E3
14EC0022
C5B5DB07
B93B6219
AAAF8080
2B3131FB
7F0DA0CC
80BA0E66
4B3ECE80
8B961847
54627B12
04D7D420
CD18362E
6106D180
18173459
19FE11F5
08A0AFD1
7F572611
21587269
C7BFDAFB
DA13FDDA
DBE1F7E7
DDCFB6CF
F308D5FE
BCE412F7
D28C94AF
E6CB958B
CDFEEFF0
8080B9C1
9A808080
EBD0C1C9
0819E80F
C493A2D6
561E15F8
E9F5BA32
C4F21A13
CC808080
F51B55ED
D8EEBBDC
80A5C8D6
EAEBE5B3
A8C69F96
4725DEB5
FF3680F3
8E80AACC
44F1B8DE
DF087F6A
EF072659
04E3CCB2
726A6335
607F2B1A
CDBBEB30
4DE5B5FC
7E2DFF4D
D6F90E70
A7D8DCA6
869D9BA3
BFF746FC
E18080AB
808DB802
E7AA8080
AADFCDDD
C9E6DFC7
CAB09180
2C11DCC6
0CE20025
A9AAF10E
AF96BCC6
DDE3D9A8
FE13EBD1
808099D8
80808080
05F9B880
000711EB
C2CEE2DB
FFECCDAB
F4090CF5
97AAB2DA
09DED4A3
0FF90308
B980CEF0
E3CCDEC3
4211270C
95D73563
2C04DB83
20F8F307
737F5127
E18080D9
C10C3A25
7F2BEDAD
89BE7F7F
63361DDD
8090F26C
7F7FED80
2A1CC4EC
D85D7029
80809F80
D0FA3280
49FDC2D1
DF959E09
A0BAB7EA
B5ECF8F5
9D8D8980
090E0DE0
E0E1B802
AFEE4D25
0DF801CF
BF0C200B
27FDEEE6
F10E2D42
4B230C22
ECE9FCFB
2014CDF0
14102D24
0E091414
E3E3170C
163C3405
09F0EFFA
DF14FC03
E5A7A7CA
C7C4C5E4
05E0F5E6
3415040D
266C4F32
2D3D521A
27FA06F9
6B4A5216
7F4C4D4B
1C3E6B67
F0DFD9FE
E6DDDAFA
4F785B2B
B7FF0A19
B9ECE8CF
B3B0C1B2
CEE5BDCA
CBA5B2FA
C1B9D0CC
80808080
93DD8580
0207FAB8
83808000
80AA0CCC
38F8ACD1
B21A3521
761FD4E3
9CEC8432
5B2C1AE2
E0F41903
82175D1F
099686F9
F61D7F44
050709D2
80F780CB
7735DB80
3A2B1952
A4ACE80D
8D808EFB
6F7F59E9
B1EC1753
B60FDFB0
AD8A8080
C4B8E2D4
009990AD
80AAE5F4
80808080
80808080
07F0FBC1
ACA3D6CD
9F808086
06EAE2C0
FDFEF710
C3CEC5D1
F3EDDAC8
FE03F90D
808099ED
80808080
F9D6A9A6
DAEEF7F5
808085BA
80808080
3704CF80
40404B2D
E4DCCFFC
8080A9D6
414A503A
563C423C
DD25577F
7932AD80
2201FF51
517F691B
BA80E21B
0D457435
A78080F3
EA0A2738
40130BB7
80ADE00D
5A30B680
9DDE2651
E607F7F2
03C580A4
E3173728
E30EFDBA
938080C7
BCBD1911
F2A2808F
84828001
F912D1A8
808080AA
A3ECC7A1
E7F815F2
9CDAE8DC
E0BA8080
6F631F10
574F5762
BAC9F534
FB15F3C8
5A4F1AF9
5E7F7655
0C0E130C
09F907FA
BED4D7D8
F3CDB5AA
CFF9110E
808AB9D2
8F808080
F4E9E1B3
B78AC6EE
391BF3D7
BBE90D2C
B0D609FA
07EDDFAD
07152506
0A071810
2202C2C6
ADFF2839
282014CC
B3CCF3FE
445A3B1B
02BBD23D
13F55B3D
0812E1E1
365FEDFB
3128F805
AEDB063B
E3808294
B8E43A6F
A7B3A295
B580A9D3
F45E3715
B9ADA7DB
80C680C7
3743FDA7
E3D6CBED
ABB405F2
19D780EA
DFE3DEF6
0BFDFDD4
AFE8AF8A
2201D68D
2B285C58
E3A4EF12
8080D7FA
2D18FABD
CB092022
F315F3C0
809894B1
80808080
FDF0BD93
F5FFED03
DBABC7DD
F3E5C3D3
DAF8F1FA
8080B5DF
80808080
E4CFBC80
8098D10B
80AB9C80
80808080
87E9C380
F29D8080
04567F2A
808080C7
C88580C2
463206E5
8AD0EC16
91B58080
473530F7
3B09B9CB
A080EC37
465BD4AC
4FDB0B44
1A607E6C
E9D5AE80
FA03172F
1A740BEF
BB808EEA
EFFCE1CB
EEC61C21
82ADDA23
8BE0CD80
B2BCB98C
D3DF08B8
C48081C8
99B58FED
DDA98084
DEC5C4B3
B7E5D8FF
DDDCB3AD
CCB9ADCA
DE112C21
300CC901
FF0D262F
627F613F
1209F504
5E495A46
47376151
0419053A
