// MNIST Quantized Weights - 8-bit Signed Packed
// Each line: 32-bit = [W3:W2:W1:W0]
// 10 neurons × 196 weight groups = 1960 lines

000000F6
00000003
00000008
00000005
0000000B
000000F8
00000009
000000FF
000000FB
000000FD
00000000
00000000
000000F7
000000F4
000000F2
00000003
00000002
000000F9
00000004
000000F7
0000000A
00000006
00000009
00000003
00000001
000000F8
00000004
000000F8
0000000A
000000F9
00000007
0000000B
000000F5
00000002
00000004
000000F3
000000EE
000000FA
000000E8
00000007
0000000E
00000004
000000E6
00000015
00000009
0000000F
000000E4
000000EC
000000FA
000000DA
00000003
000000F8
00000005
00000007
000000FA
00000003
00000009
00000005
000000F8
00000008
00000019
000000ED
000000E7
000000F3
000000D8
000000D5
000000B0
000000E1
000000D8
000000C8
000000B8
000000A4
000000BA
000000A9
0000009D
000000C0
000000B3
000000BC
000000CB
000000DA
000000E9
00000002
00000000
000000FD
0000000A
00000001
0000000A
00000000
000000E2
000000ED
000000D9
000000DC
000000E5
000000E7
000000EC
000000E9
000000F2
00000003
000000EF
000000FD
000000FD
000000EC
000000DB
000000D4
000000D4
000000CC
000000D0
000000EB
000000F7
000000F1
000000F6
00000004
000000FE
00000009
000000F9
000000FB
000000DD
000000DD
000000D1
000000F5
000000FF
00000008
000000F3
00000005
000000ED
00000006
000000F3
000000F8
00000000
00000006
000000F7
000000F6
000000FA
000000E8
000000EF
000000F9
000000D3
000000D9
000000D7
000000F3
00000008
000000FD
000000E9
000000EC
000000CC
000000CF
000000EC
000000FA
000000FB
000000F2
000000FE
00000001
000000EF
00000004
00000017
00000003
0000000C
0000000D
00000010
0000000F
000000F3
00000000
00000000
000000DD
000000D8
0000009F
000000C8
000000EB
000000F8
000000F3
000000EF
000000D0
000000D7
000000ED
000000FC
000000F5
000000EF
000000E5
00000000
000000F6
000000FC
00000015
00000004
00000004
00000014
0000000E
00000016
0000000B
00000000
00000019
0000001C
000000EE
000000B9
00000093
000000B2
000000DF
000000F9
000000E6
000000E4
000000E3
000000BE
000000F1
00000004
000000F8
000000E7
000000FA
000000FF
00000004
00000007
00000005
00000003
0000000F
0000000E
00000020
0000001B
00000011
00000007
00000002
00000006
0000000C
000000E4
00000090
000000A5
000000E1
0000001A
000000E5
00000001
000000FC
000000C2
000000F2
000000EC
000000FB
000000F1
00000000
00000007
00000000
00000005
00000009
0000000D
00000011
00000026
0000001F
0000001B
0000000F
00000009
00000006
0000000C
0000001E
000000F8
00000084
000000A0
000000DD
000000EE
000000E8
00000018
00000006
000000E5
000000FA
000000F6
000000EB
000000F6
00000006
00000000
000000FC
0000000A
00000010
00000011
000000FD
0000000E
00000027
0000001B
00000013
0000000B
00000005
000000FC
00000020
00000011
0000008F
000000A1
000000E3
000000FD
000000FF
0000000B
0000000A
000000FA
000000F7
000000F4
000000EE
000000F8
000000FD
000000F1
000000F5
00000005
00000002
00000000
000000F6
000000FC
00000014
00000023
00000013
00000011
0000000E
00000017
00000028
0000000D
000000A6
000000B5
000000F1
000000EC
0000000E
000000ED
000000F0
000000D9
000000F2
000000F7
00000009
000000FF
000000F7
000000F3
000000FF
000000EC
000000F2
000000CD
000000B4
000000BB
000000F3
000000FC
00000008
00000016
00000021
0000001B
0000001C
00000023
000000C4
000000AB
000000F6
000000F4
00000004
000000F9
000000EE
000000ED
000000FF
00000016
000000FA
000000F4
000000F2
000000F5
00000003
000000FF
000000DD
000000BB
0000009F
000000BB
000000E3
000000F3
000000FE
000000FE
0000000E
0000001D
0000001E
0000003A
000000F1
000000C1
000000E7
00000003
00000001
00000004
000000F1
000000F7
00000004
00000016
00000019
00000002
00000009
00000000
00000004
00000000
000000CF
000000B1
000000A3
000000B2
000000E9
000000F6
000000FA
000000F0
00000002
00000017
00000028
00000023
00000013
000000D0
000000E5
000000F3
000000F8
000000F6
000000D3
000000F5
0000000D
00000017
00000023
00000019
0000000C
00000011
0000000D
00000002
000000D1
0000009C
0000009F
000000B0
000000EC
000000F6
000000E8
00000003
0000000A
0000000E
0000001E
00000021
000000FE
000000D5
000000E7
000000FC
000000FA
000000E1
000000DC
00000000
0000001F
00000009
0000001A
00000017
00000017
00000015
00000011
000000F6
000000C0
0000008C
000000B8
000000C0
000000EB
000000FB
000000F3
00000009
0000000E
0000000D
00000016
00000023
000000F7
000000C5
000000DF
000000FB
000000FB
000000E3
000000DF
00000008
0000001E
0000000A
0000001D
0000001D
00000015
00000024
00000005
000000D3
00000097
000000A8
000000CB
000000D5
000000EB
00000001
0000000B
00000019
00000009
0000000D
00000014
00000009
000000E0
000000B9
00000001
0000000A
000000E5
000000E2
000000E6
000000FE
00000019
00000015
0000000A
00000010
0000001B
00000028
0000000A
000000E4
000000AC
000000B2
000000D0
000000F3
00000009
000000F4
000000FF
0000000B
0000000A
00000011
000000FD
000000F3
000000DC
000000C6
00000000
000000EC
000000FE
000000D4
000000C8
000000F2
000000F6
00000003
0000000F
00000016
00000018
0000002A
00000001
000000E2
000000C0
000000C1
000000E3
000000F7
000000FA
00000004
000000F4
000000F3
00000006
00000013
00000000
000000F4
000000DB
000000E3
000000D9
00000007
00000019
000000F9
000000E3
000000F3
00000001
000000FF
0000000E
00000006
0000000A
00000023
00000016
0000000D
000000F0
000000EA
000000EE
000000FA
00000002
000000FD
000000FC
000000F4
00000000
00000007
000000F9
000000F8
000000C7
000000D1
000000F0
000000F6
00000007
000000F8
000000D6
000000FD
00000005
0000000A
00000001
00000008
0000000D
00000028
0000002F
0000001A
0000000E
000000FB
00000003
000000EE
000000FC
000000F3
000000F3
000000F7
00000003
000000FF
000000EC
000000EB
000000CE
000000DD
000000FB
00000001
000000F6
000000E9
000000F2
000000F2
00000001
00000000
00000001
00000004
000000FD
0000001C
00000017
00000014
00000010
00000006
00000004
000000F5
000000ED
000000E3
000000E5
000000ED
000000FB
00000000
000000E3
000000DB
000000D9
0000000A
00000012
00000003
000000F9
000000DD
000000D2
000000C6
000000F4
00000006
00000008
00000004
00000005
0000000E
00000014
00000015
0000001D
00000016
0000000B
00000006
000000F8
000000F2
000000F6
000000F4
000000F7
000000FA
000000FD
000000E2
000000DE
00000017
00000002
000000F9
00000000
000000F4
000000C8
000000C1
000000E8
000000F0
000000FD
0000000B
00000012
00000023
00000019
00000026
0000001E
0000001D
00000006
00000004
000000FE
000000DB
000000CF
000000D2
000000DF
000000E6
000000D4
000000D8
000000EF
000000EB
0000000A
000000FF
000000FF
000000E4
000000EF
000000E4
000000E5
000000D3
000000D7
000000F7
000000F2
00000001
000000FD
00000016
00000008
00000006
000000F9
000000F0
000000F0
000000CC
000000BF
000000B0
000000B2
000000D1
000000C2
000000C5
000000F2
000000FE
000000F6
00000001
000000FC
000000ED
000000F1
000000E5
000000C8
000000BB
000000B4
000000AC
000000A2
0000009A
000000BC
0000009A
000000A2
000000A0
0000008D
000000A2
000000AE
000000AD
000000A4
000000B6
000000BA
000000C7
000000D6
000000D8
00000005
00000004
0000000B
0000000B
000000FF
00000004
000000F5
000000E9
000000E9
000000CC
000000D4
000000B4
000000A4
000000A4
000000B8
000000B2
000000C2
000000C1
000000BB
000000B4
000000C7
000000B5
000000D2
000000D5
000000D4
000000EB
000000E3
000000FE
000000FF
00000003
00000007
00000001
00000000
00000008
000000F6
000000FD
000000F5
00000001
000000EA
000000EE
000000ED
000000E7
000000E4
000000EA
000000E6
000000D3
000000E0
000000EB
000000F2
000000F2
000000EE
000000EE
000000DD
000000E0
000000E4
00000007
000000FD
000000F6
000000FE
00000008
000000FA
00000003
000000FF
000000FF
000000FD
00000002
0000000B
00000006
000000F9
000000FB
000000F7
00000004
000000F2
000000F7
00000001
00000002
000000FE
00000006
00000004
000000FA
00000002
000000F8
000000F9
00000004
00000005
00000003
00000008
000000FF
00000002
000000F6
00000005
000000F6
000000FF
000000FD
000000EE
000000E9
000000E8
000000EC
000000EC
000000DF
000000F1
00000014
00000008
000000E2
000000D9
000000E5
000000FB
000000F5
000000F1
00000000
000000FC
000000F9
00000005
0000000A
00000009
00000005
000000FB
000000FA
000000FD
000000FE
000000FD
000000F8
000000F2
000000DF
000000E9
000000C5
000000E4
000000F0
00000006
00000018
0000002D
00000023
000000FC
000000EF
000000F0
000000E6
000000DF
000000E0
000000E2
000000F2
00000007
00000002
00000000
000000F8
000000F6
00000010
00000009
000000F0
000000EA
000000DB
000000CD
000000C6
000000CF
000000C6
000000BC
000000D6
000000F5
000000E7
000000FE
000000FD
000000EA
000000D0
000000D7
000000D2
000000DD
000000C7
000000C8
000000C8
000000E1
000000F0
000000F8
00000003
000000F7
00000019
000000F7
00000005
0000000F
00000003
000000F3
000000F3
000000E7
000000F0
000000E4
000000EF
00000006
00000006
00000007
000000F6
000000F0
000000FF
0000000A
00000007
00000003
000000EB
000000EC
000000C0
000000C2
000000CF
000000EE
000000FE
00000008
0000001B
0000000D
00000024
00000013
00000006
000000E4
000000D7
000000DA
000000DC
000000D8
000000EC
000000F3
000000FB
000000FE
000000F2
000000E3
000000F2
000000F6
0000000D
00000016
00000010
0000000E
000000FB
000000B8
000000E1
000000EB
00000007
000000F3
000000E7
000000FB
00000014
000000EA
000000EC
000000E3
000000DA
000000D2
000000DE
000000E6
000000E1
000000EF
000000E5
000000DB
000000E0
000000D7
000000FD
000000EE
00000006
000000FE
000000FF
00000001
000000E3
00000095
000000CF
000000F7
00000005
000000E2
000000E1
000000DF
00000001
000000DC
000000CA
000000E7
000000D0
000000DC
000000E0
000000E2
000000EF
000000F2
000000EB
000000DB
000000E9
000000E1
000000E6
000000FF
000000FC
000000FD
000000F0
000000DF
000000C1
00000099
000000CE
000000DB
00000002
000000DE
000000F2
000000E1
000000FC
000000D6
000000D3
000000E8
000000D1
000000CB
000000E1
000000EA
000000ED
000000F9
000000FF
00000000
000000F2
00000000
000000EE
000000F3
000000E7
000000E3
000000E3
000000B8
0000009F
000000A4
000000DA
000000E8
000000FA
000000F2
000000F3
000000EA
000000EB
000000CE
000000D2
000000F4
000000ED
000000D7
000000E5
000000FE
000000FA
00000003
00000020
0000002D
0000000D
0000000A
000000FD
000000E1
000000D2
000000E6
000000C4
000000B0
000000AD
0000009E
000000C7
000000F5
000000F5
00000003
000000EA
000000E3
000000E6
000000C2
000000C7
000000DF
000000E2
000000E5
000000EF
000000F7
000000FC
00000014
00000042
00000044
00000021
00000007
000000E6
000000F3
000000D3
000000E4
000000C0
000000A5
00000087
000000D9
000000D6
0000000C
000000FE
00000014
0000000B
000000DE
000000F7
000000D5
000000C1
000000DA
000000E8
000000E2
000000ED
000000E7
000000E6
0000001A
0000004D
0000004A
00000020
000000F1
00000002
000000ED
000000EF
000000DB
000000D4
000000D5
000000AA
000000F2
000000E8
0000000C
000000F8
000000F7
000000E5
000000F2
0000000A
000000DE
000000F8
000000ED
000000EB
000000EF
000000D5
000000CE
000000E8
00000026
0000004A
00000036
00000009
000000F9
000000F0
000000E8
000000E0
000000F8
000000E8
000000F4
000000C0
000000E8
000000D7
00000006
00000008
000000EC
000000EF
0000001C
00000000
000000EE
000000FC
000000EF
000000FB
000000DE
000000B4
000000BA
000000DD
0000002A
00000049
0000003B
00000012
00000010
000000EB
000000CC
000000E0
000000E6
000000D5
000000C8
000000B7
000000CD
000000D3
000000FA
000000FE
000000F8
00000009
0000001B
00000020
000000F2
000000D6
000000D6
00000007
000000D6
000000B6
000000B5
000000FB
0000002C
00000045
00000035
0000000A
000000EF
000000CC
000000C0
000000D3
000000DE
000000E6
000000E5
000000ED
000000E5
00000003
000000F4
000000FF
00000000
0000001B
00000013
00000004
000000D6
000000BA
000000EC
00000004
000000D3
000000D1
000000E4
00000000
00000028
0000003D
0000001E
00000002
000000CE
000000B2
000000A0
000000BC
000000D7
000000CD
000000B0
000000C5
000000DA
000000D9
000000DA
00000006
00000019
00000011
000000E5
000000DF
000000D4
000000BB
000000D3
000000E8
000000EF
000000EE
000000ED
000000FC
0000002C
00000044
000000FD
000000E1
000000AF
000000B4
000000B9
000000CF
000000D8
000000DC
000000BF
000000EE
000000C2
000000E6
000000DA
0000000B
0000000F
000000F9
000000E8
000000E2
000000C2
000000B7
000000C7
000000E5
000000ED
000000EC
000000DA
00000005
00000024
00000029
000000F9
000000CD
000000B5
000000D9
000000DB
000000E3
000000F3
000000F2
000000F0
000000E8
000000DE
000000EF
000000DD
000000F4
00000006
000000EF
000000E7
000000B9
000000A3
00000094
000000C6
000000F0
000000FC
000000F4
000000E9
00000009
0000001B
0000001C
000000EC
000000D5
000000E0
000000FA
000000F4
00000007
000000FF
000000E7
000000F2
000000EF
000000FF
0000000B
0000001C
0000000F
00000001
000000FC
000000DA
000000B4
00000095
000000CF
000000F2
000000F5
00000000
000000F3
00000001
000000F8
0000000F
00000005
00000000
000000FF
000000F7
0000000E
0000001C
00000008
00000008
000000F6
000000F3
0000000B
00000003
00000001
0000001B
000000FB
000000FD
000000DC
000000ED
000000E3
000000C4
000000F4
000000FF
00000008
00000003
00000008
00000009
00000006
000000F8
000000F6
000000F5
00000014
0000001A
0000001E
0000001B
0000000C
00000009
000000FA
000000EF
00000000
0000000A
00000005
00000014
00000010
00000003
000000F3
0000000B
0000000E
0000001F
0000001D
00000003
00000012
00000008
00000011
000000EB
000000EF
000000E7
00000001
00000010
0000000F
0000000B
00000021
0000000C
00000013
00000014
000000E1
000000DC
00000009
0000000D
000000F8
0000000B
00000013
0000000D
000000F1
000000F9
0000001B
0000004A
0000001C
00000013
000000FE
00000000
000000F2
000000DD
000000D1
000000DA
000000F9
000000FC
00000005
00000019
00000026
00000011
00000018
000000F9
000000D2
000000DC
00000005
00000010
00000012
00000000
000000FA
000000FB
000000F5
000000E6
000000EC
0000002F
00000025
00000005
000000F9
00000004
000000ED
000000E4
000000F9
000000EB
000000EA
0000000D
00000002
00000029
00000001
000000FF
00000000
000000DA
000000D7
000000C4
000000E0
00000009
00000014
000000F7
00000005
000000FE
000000F9
000000E5
000000C6
000000FF
000000FF
000000EF
000000D7
000000E7
000000E0
000000D4
000000DC
000000DC
000000D5
000000D9
000000C1
000000F4
00000003
0000000D
000000EC
000000EB
000000DC
000000E0
000000EA
00000010
00000007
00000008
000000F9
00000008
000000F8
000000DF
000000C6
000000AE
000000B5
000000AC
000000CA
000000B3
00000088
00000084
000000B8
000000AE
000000B8
0000009E
00000080
00000093
00000080
000000A4
000000C1
000000DB
000000E5
000000E3
000000F2
000000F0
00000003
00000001
00000009
00000006
000000FF
000000EE
000000E2
000000D4
000000CD
000000D2
000000B5
000000B8
000000C3
000000BA
000000A3
000000AF
000000A7
000000C6
000000D1
000000AE
000000D7
000000C4
000000DB
000000E8
000000DF
000000EB
00000000
000000FC
00000006
000000FF
0000000A
0000000B
000000F9
00000002
000000F6
000000FD
000000F0
000000FD
000000F7
000000F3
000000E9
000000E3
000000E0
000000DC
000000E1
000000FD
000000EC
000000F2
000000E6
000000F4
000000F9
00000003
000000F8
000000FB
000000FB
000000FC
000000F6
00000008
00000004
00000004
00000008
000000FC
000000FD
00000009
000000F8
000000FD
000000FA
000000FF
00000007
000000FD
000000F7
000000FE
00000016
00000009
00000003
000000F7
00000002
000000F9
00000008
000000FC
0000000A
00000009
000000F5
00000008
00000001
000000FF
00000008
00000001
00000007
0000000A
000000EB
000000F5
000000EA
000000EE
000000F1
000000F7
000000E1
000000CC
000000C3
000000D3
000000F6
00000001
00000030
00000008
000000D7
000000D0
000000DA
000000E2
000000EA
000000F2
000000FD
000000F6
000000F6
00000005
00000005
00000008
000000FD
000000E8
000000EC
000000F4
000000ED
000000E4
000000FA
00000011
00000008
00000010
00000014
000000FE
0000000D
00000007
00000015
00000002
000000FC
000000E4
000000DC
000000E6
000000CB
000000F6
00000011
00000007
00000000
000000FE
00000006
00000003
000000F6
000000E5
000000D8
000000F1
000000F6
00000011
00000003
00000027
0000001C
00000024
0000002A
00000023
00000015
0000000B
00000018
00000007
000000E8
000000E7
000000DC
000000DD
000000D6
000000B4
000000FB
0000000C
000000F1
00000003
0000000B
000000F2
000000F7
000000EA
000000E0
00000007
0000001D
00000005
00000012
00000024
0000001D
00000013
00000021
00000010
00000013
00000008
00000007
00000003
00000004
000000ED
000000F6
000000D3
000000C8
000000AD
000000C3
000000F1
000000EF
000000ED
00000004
00000001
00000007
00000004
000000FE
000000FD
0000000E
00000011
00000016
00000007
00000015
00000012
00000019
00000014
00000018
0000000F
00000021
0000001A
0000000A
000000FF
000000F8
000000F8
000000F4
000000D5
000000BF
000000E5
000000DD
000000E3
000000FE
000000FC
000000FF
000000F9
0000001A
00000008
00000009
00000011
00000007
00000011
00000005
00000001
00000006
0000000A
00000009
00000010
0000000C
00000002
000000FC
000000FB
000000F3
000000F8
000000E8
000000BC
000000AB
000000CC
000000D6
000000ED
000000F6
000000DA
000000FF
00000009
0000001C
0000000E
00000015
0000000C
00000007
0000000B
000000FD
00000012
000000FC
0000000A
00000007
00000000
000000F4
000000EE
000000F6
000000F8
000000EF
00000001
000000F9
000000C6
000000A5
000000D2
000000C9
000000DF
000000EA
00000001
00000002
000000FA
00000026
0000000A
00000000
000000FF
00000009
000000FD
00000019
0000000A
00000002
000000FD
0000000C
0000000B
00000004
000000FF
000000FA
00000002
00000004
000000F4
000000FA
000000F1
00000089
00000083
000000C3
000000DD
000000FA
000000E2
000000F0
00000008
00000016
0000001C
000000FF
00000003
000000F6
00000007
0000000F
00000009
00000007
00000008
0000000C
00000012
00000006
0000000A
00000001
00000003
000000F9
000000F9
000000EE
000000ED
00000083
0000008D
000000E1
000000EE
000000FB
000000E5
000000F5
00000012
000000FB
0000001B
00000012
000000EB
000000F5
000000ED
000000E9
000000F1
000000F4
000000E5
000000EE
000000EE
00000004
00000006
0000000E
00000004
000000FC
000000FF
000000ED
000000EF
000000BB
000000D8
000000F5
000000E1
000000F2
000000E5
000000E1
000000EF
000000EF
00000002
000000DD
000000D7
000000C5
000000C9
000000BB
000000B2
000000A7
000000A6
000000BE
000000D2
000000E1
000000E2
000000EC
0000000A
000000F6
000000FB
000000F7
000000E8
000000EB
00000005
0000000D
000000F1
000000FB
000000EB
000000D8
000000D9
000000E1
000000CC
0000009D
00000094
000000BB
000000C2
000000C1
000000BD
000000C2
000000BD
000000BC
000000CF
000000DD
000000E4
000000F5
00000005
000000FA
000000F1
000000E9
000000D9
000000FF
00000036
00000030
00000016
000000F6
000000E1
000000F3
000000D2
000000A9
000000A1
00000095
000000A9
000000C1
000000D1
000000DE
000000F3
000000E9
000000FA
000000F4
000000DB
000000E6
000000E7
000000ED
000000F1
000000F4
000000FC
000000F0
000000E4
00000029
0000004D
0000004A
00000026
000000EF
000000F3
000000E7
000000DE
000000C1
000000B6
000000D8
000000E6
000000EF
000000E9
000000FF
00000003
000000FE
0000000A
00000001
000000F4
000000EC
000000EA
000000F7
000000EB
000000FE
000000E5
000000EF
000000F5
00000010
0000003D
00000054
00000022
00000000
000000F6
000000F7
00000005
00000004
00000010
00000003
000000FF
000000FB
000000FF
000000FC
00000005
00000000
0000000C
0000000A
00000002
000000FF
000000F9
000000ED
00000000
000000F0
000000F9
000000E4
000000F0
0000002F
00000048
00000051
0000002A
000000F5
000000EC
000000EF
0000001E
00000015
00000019
00000020
000000FA
000000F3
000000FE
0000000D
0000000F
00000020
0000001A
00000008
000000FD
0000000C
0000000B
00000009
000000F6
000000F4
00000008
00000001
00000011
0000002F
0000006A
0000004F
00000029
000000F5
000000DB
00000009
00000018
00000027
00000025
00000012
00000003
00000006
0000000C
00000010
0000001D
00000021
0000001D
00000008
00000009
000000FB
000000F8
00000004
000000F6
000000FC
00000011
0000000C
00000005
0000002F
0000006C
00000049
00000031
000000E6
000000E7
000000F8
00000012
0000001C
0000001A
0000001A
00000021
00000006
00000006
00000013
0000001B
00000020
0000001D
00000004
00000003
00000013
00000017
0000000C
00000009
000000FD
0000000F
00000014
0000002A
0000003A
00000050
0000002A
0000001A
000000EB
000000EA
000000F9
000000EC
0000000B
00000010
00000007
00000023
00000018
0000000E
0000001E
00000016
00000019
0000001F
00000018
00000007
00000018
0000000F
0000000A
00000003
00000009
00000011
00000018
00000021
00000021
00000051
0000003A
00000009
000000F8
000000ED
00000001
00000003
00000013
00000012
00000007
0000001A
00000017
0000001A
00000016
00000016
00000018
00000008
00000003
00000003
0000000D
000000F6
0000000F
00000014
00000015
0000001A
0000001D
00000012
00000026
00000028
00000024
000000F3
000000F9
00000000
0000000F
0000000C
0000000D
00000004
0000000E
00000013
00000004
00000011
0000001B
00000008
0000000C
00000005
000000FD
000000FF
0000000C
00000018
0000001A
0000001E
0000000C
0000000E
00000017
00000027
00000027
0000002A
00000018
00000002
000000F3
000000F3
000000FF
00000004
00000018
00000009
00000017
00000018
00000023
00000014
00000015
0000000F
0000000D
000000FA
000000FB
000000FB
000000F7
00000005
00000017
0000001A
00000017
0000000F
00000019
00000014
0000001B
0000000E
000000F0
00000004
0000000A
000000F6
000000EF
000000E5
000000EF
000000FA
000000F7
00000007
0000000C
00000005
00000003
00000004
0000000D
000000F7
000000FB
000000F2
00000000
00000002
00000015
00000021
0000001E
0000001E
0000001A
0000001E
00000024
0000001A
000000F7
000000F9
00000001
00000006
000000E1
000000BE
000000CC
000000BD
000000CE
000000DD
000000E3
000000E9
000000E3
000000E4
000000FE
00000002
00000003
000000F2
000000F8
00000002
00000013
000000FF
000000F8
00000011
00000002
00000004
00000030
0000001E
00000005
00000003
00000002
000000FC
000000E5
000000DF
000000C8
000000A6
000000C5
000000BF
00000096
00000097
000000A0
000000B7
000000BB
000000CE
000000E6
000000F5
000000E7
000000E6
000000D4
000000CE
000000D2
000000E0
000000C3
000000C7
000000E9
0000000D
00000012
000000FC
00000009
00000000
0000000A
000000FB
000000D5
000000C9
000000D5
000000C6
000000CB
000000D0
000000AD
000000D1
000000B3
0000009C
00000092
000000B9
000000AA
000000C7
000000A9
000000B8
000000BF
000000BE
000000C9
000000DD
00000000
000000FD
000000FC
000000F9
000000F8
000000FD
0000000B
000000FB
000000FA
000000FE
000000ED
000000F8
000000FF
000000F2
000000E5
000000F3
000000E7
000000E0
000000E4
000000F8
000000F6
000000EA
000000ED
000000E5
000000F4
000000F0
000000F0
000000F2
00000001
00000009
000000FB
00000008
000000FD
00000009
00000003
00000006
000000F7
0000000A
000000FF
00000001
000000FC
000000F7
00000008
00000001
000000ED
000000F6
000000FC
00000006
000000F7
00000002
000000FC
00000001
000000FC
0000000A
000000FC
0000000A
000000F9
00000006
000000FF
00000008
000000FA
000000F6
000000FF
00000002
0000000A
00000006
000000FB
000000F6
000000DF
000000E2
000000E4
000000E4
000000E9
000000EB
000000ED
000000D9
000000D3
000000D8
000000E0
000000F7
000000F1
000000E8
000000F8
000000FA
000000F5
00000007
00000003
00000006
000000FB
00000004
000000FB
00000004
000000FF
000000E0
000000E2
000000E4
000000D7
000000B8
000000F5
000000F1
000000F8
000000F3
000000EF
000000D5
000000EA
000000E7
000000E7
000000D5
000000D2
000000D5
000000D1
000000DF
000000E5
00000005
000000FC
00000003
0000000B
000000FB
000000EE
000000DF
000000F2
00000016
00000019
00000007
0000001F
00000006
0000000A
0000001F
00000027
00000017
0000001E
0000001D
00000014
00000010
00000019
00000010
0000001B
000000EA
000000BC
000000D0
000000E9
000000FE
00000001
00000004
00000001
00000010
0000000A
00000019
00000020
00000030
0000002B
00000020
00000018
0000001E
00000023
00000020
0000001E
0000001F
0000000F
0000000B
00000019
0000000A
0000000B
0000000D
000000F4
000000D9
000000E4
000000A2
000000AE
000000D8
000000E6
000000EB
000000F7
00000007
0000000B
00000025
00000025
0000002D
00000021
00000020
0000000B
00000009
0000000F
0000000A
0000000A
00000006
00000006
0000000E
0000000B
00000002
000000FD
00000003
000000FE
000000E1
000000E7
000000C3
000000BB
000000A2
000000E3
000000EE
00000004
0000000F
000000F8
0000001C
00000020
00000016
0000001E
0000000D
00000013
00000019
00000011
0000000F
0000000C
00000015
00000010
00000010
00000019
00000006
0000000D
000000FF
000000F6
000000F4
000000F2
000000D7
000000D6
00000093
000000E5
000000F2
000000F5
00000021
000000E7
00000015
00000016
00000024
0000000F
0000000D
00000000
0000000E
00000007
000000F8
0000000E
0000000E
0000000E
00000015
000000FF
0000000A
000000FE
0000000B
000000F9
000000FA
000000E9
000000D9
000000B5
00000080
000000D7
000000E8
000000EC
000000F8
000000DF
00000005
00000027
0000000A
00000008
00000004
000000FF
000000F7
00000009
00000003
00000004
00000003
00000014
00000012
0000000D
00000011
00000009
0000000B
0000000C
00000006
00000004
000000C2
00000080
00000080
000000D1
000000F8
000000E1
000000EE
000000F7
0000000F
0000002C
00000012
00000007
0000000C
000000F8
000000F9
000000E5
000000D9
000000E1
000000FA
00000016
00000023
0000001B
00000008
0000000C
0000000F
00000018
00000011
00000015
000000EC
00000080
000000A1
000000D1
000000F1
000000F2
000000E0
00000006
00000032
00000015
000000FA
00000007
000000F4
000000E3
000000C6
000000C4
000000C8
000000D2
000000FC
0000001B
00000013
00000013
0000001C
00000018
00000015
0000001E
00000012
00000008
000000F0
00000080
000000E5
000000BB
000000F5
000000D9
000000EA
00000003
0000003A
00000012
000000EA
000000DD
000000C0
000000C4
000000CF
000000D9
000000DB
000000EE
00000006
0000000F
0000000C
00000003
0000000E
00000008
0000000D
00000015
000000F7
000000E8
000000DA
00000093
000000F8
000000D0
000000E0
000000EF
000000DC
000000D7
0000000E
000000F1
000000D8
000000CB
000000D9
000000D4
000000EA
000000F7
000000F2
000000FD
00000012
00000012
0000000F
000000FF
0000000B
0000000F
000000FF
000000E8
000000CA
000000B9
000000BE
000000AA
00000001
000000DF
000000E8
000000F8
000000DF
000000C9
000000F4
000000DD
000000DA
000000DC
000000CD
000000DF
000000EF
000000E9
000000EE
000000FF
00000014
0000000F
00000002
00000001
0000000A
000000FC
000000EE
000000CD
000000CC
000000C0
000000D4
000000E2
000000EC
000000DA
000000F1
000000E6
00000016
00000003
00000007
000000F1
000000D3
000000C3
000000D2
000000E0
000000ED
000000ED
000000E9
00000005
00000007
00000002
0000000A
000000F4
00000001
00000001
000000EF
000000F4
000000F5
000000DB
000000E2
000000E4
000000DE
000000DA
000000EA
000000EB
0000001C
00000011
000000F9
000000F2
000000F2
000000EA
000000DB
000000DE
000000D9
000000ED
000000F3
0000000A
00000007
00000009
000000FC
000000F5
000000F5
000000FF
00000005
00000012
00000002
0000000B
00000012
00000004
000000AC
000000FC
000000E2
000000F4
00000018
00000021
0000001F
00000019
00000002
000000E8
000000D7
000000D2
000000E4
000000DE
000000F6
00000004
0000000C
000000F4
000000EB
000000E2
000000F8
00000010
00000013
0000000A
00000017
0000001E
00000027
0000002E
000000AC
000000C0
000000E1
000000FC
0000001C
00000016
0000002A
0000001F
00000005
000000FC
000000F4
000000DB
000000C5
000000C4
000000CE
000000D2
000000E2
000000D1
000000E2
000000F7
00000014
0000000C
00000016
0000000C
00000010
00000018
00000017
000000F9
000000B1
000000C9
000000DC
000000E6
0000000B
00000018
00000046
00000023
0000001F
0000000B
000000F5
000000F2
000000CF
000000C2
000000C6
000000C8
000000C7
000000E0
000000FC
00000019
00000015
00000017
00000017
0000000E
00000016
00000020
0000000A
000000D0
0000009A
000000CC
000000DD
00000003
00000001
00000002
00000036
0000001A
00000028
0000000A
000000FC
000000F8
000000F8
000000EB
000000DC
000000E1
000000EA
000000F2
0000000B
0000001B
0000001A
00000016
0000001C
00000003
00000014
0000000A
00000002
000000E1
00000080
000000D2
000000EC
00000009
000000F6
000000FA
0000003B
0000001E
00000020
0000001F
00000018
00000009
0000000D
000000F3
000000E7
000000DA
000000F3
000000FE
00000009
00000004
00000013
00000013
0000000C
00000019
0000000F
000000F7
000000F8
000000DF
000000A0
00000001
000000E8
000000ED
00000007
00000011
00000023
00000019
00000011
00000015
00000008
0000000E
000000F1
000000F8
000000E5
000000F6
000000F3
000000F8
0000000B
0000000A
0000000E
00000010
00000014
00000008
000000F3
000000EF
000000E9
000000BC
000000A1
000000E9
000000F4
000000FF
00000000
00000012
0000001D
00000019
000000FC
00000009
00000003
00000006
000000FA
00000004
00000005
000000F9
000000F5
000000F4
0000000A
000000FE
0000000E
00000012
0000000C
00000005
000000ED
000000F6
000000E7
000000B7
000000E2
000000F8
000000FA
000000F7
00000005
00000025
00000046
00000021
0000001D
00000019
0000001A
0000000A
00000007
0000000D
0000000F
000000FF
0000000D
000000F8
00000006
000000F7
00000007
00000019
00000007
000000F7
000000EF
000000D4
000000D7
000000ED
000000E6
00000015
00000000
00000000
000000FD
0000000D
00000030
00000033
00000022
00000031
00000025
00000020
00000013
0000001A
00000022
00000018
0000001A
00000010
00000003
0000000E
00000007
000000F3
000000F2
000000DE
000000EF
000000EF
000000E8
000000DA
000000E5
00000001
000000FC
000000F7
0000000A
00000018
000000E8
000000FC
00000010
00000033
00000035
00000040
00000041
0000003F
0000002E
00000036
0000002F
0000001A
0000000C
00000013
000000FF
00000000
00000011
000000FC
000000E4
000000F2
000000DD
000000EE
000000EE
00000009
0000000B
000000FC
000000FE
000000FD
000000EB
000000DC
00000002
000000FB
000000F7
000000F8
000000EC
000000F2
000000FB
000000E9
000000EF
000000F0
000000EA
000000FF
000000FD
00000002
00000000
00000008
000000EC
000000EC
000000D8
000000FC
000000F5
000000FA
000000F7
000000F9
00000005
000000FF
00000002
00000005
000000F0
000000EE
000000E0
000000ED
000000DD
000000D1
000000BD
000000BD
000000BC
000000BB
000000B1
000000C6
000000B4
000000CE
000000DF
000000E9
000000E8
000000E6
000000F1
000000FD
000000F6
000000FA
000000FE
00000004
00000003
00000001
000000FF
00000005
00000005
000000F9
00000009
000000FA
000000FC
00000002
00000005
000000E9
000000F4
000000F0
000000F6
00000009
00000005
000000F8
000000FC
00000006
00000007
000000F7
00000001
000000FF
00000002
00000009
000000F6
000000F5
000000FB
000000FF
00000008
000000F1
000000E0
000000DB
000000DE
000000CD
000000CE
000000D5
000000C4
000000C7
000000B7
000000ED
000000C6
000000BF
000000C5
000000C5
000000E2
000000DC
000000EE
000000F0
000000E6
00000005
000000FD
00000008
000000FE
000000FA
00000008
000000FA
000000E7
000000E0
000000E2
000000C8
000000C9
000000B9
00000094
00000097
00000080
0000008E
000000AF
000000BD
000000A8
000000AF
000000CE
0000008D
000000BB
000000B3
000000D0
000000CF
000000CC
000000DF
000000EC
000000FE
000000FF
000000F6
000000F7
000000FA
000000E2
000000D3
000000E6
000000DB
000000D5
000000B3
000000A0
000000A8
0000009A
0000008B
00000083
000000AC
000000B2
000000C1
000000CA
000000CD
000000EC
000000FB
00000005
000000F8
000000F9
000000E3
000000DD
000000E9
00000001
000000F9
00000006
00000003
000000D5
00000009
00000004
000000DF
000000EF
000000DA
000000D9
000000C0
000000D5
000000D0
000000E7
000000CD
000000C7
000000E9
000000EA
000000E9
0000000D
0000001C
0000001D
0000002E
0000002B
0000001A
000000FC
000000E4
000000E6
000000F9
000000FD
000000E2
000000EE
0000000C
0000000E
000000FF
000000EE
000000FD
000000FD
000000E6
000000EC
000000F1
000000D9
000000FA
000000FF
00000003
000000FD
00000002
00000011
00000004
00000000
0000000F
00000031
00000012
000000EE
000000DB
000000E1
000000FA
000000F4
000000DA
000000EF
00000010
0000000B
000000FE
00000005
000000FF
000000F4
000000F2
000000DB
000000DA
000000D5
000000CD
000000CE
000000D4
000000E0
000000DB
000000F4
000000F2
000000F9
0000001B
0000002A
0000000B
000000EA
000000FC
000000DC
00000002
000000F3
000000D3
000000E6
0000000D
00000020
000000F6
00000001
000000FC
000000F8
000000E3
000000E1
000000D8
000000D1
000000C9
000000C9
000000C2
000000E8
000000E4
000000ED
000000F5
000000F1
00000008
0000000E
00000002
000000FC
00000009
000000CB
000000E5
000000E5
000000FF
000000E8
000000FA
0000000A
00000003
000000F9
000000E9
000000FE
000000F3
000000EC
000000D5
000000E3
000000CD
000000CC
000000D0
000000E7
000000F6
000000F1
000000FC
000000FE
000000F9
000000F9
000000ED
000000F8
000000E1
000000EE
000000EA
000000E2
000000EC
000000C9
000000E5
000000E9
000000EC
000000F5
000000EF
000000F5
000000ED
000000F3
000000F7
000000ED
000000B4
000000CC
000000F0
000000F6
000000F9
000000FE
000000F7
000000F4
000000F1
000000E6
000000BD
000000C7
000000D8
000000DD
000000EA
000000E0
000000DA
000000CD
000000E5
000000E6
000000E6
000000FB
00000001
00000009
00000006
00000001
0000000D
000000DB
000000AD
000000E7
000000FB
00000009
00000005
00000001
000000FB
000000FB
000000F5
000000CB
000000BF
000000B1
000000C3
000000E5
000000F8
000000DC
000000C0
000000E7
000000E2
000000F6
000000FA
00000006
00000009
0000001E
00000019
0000001E
00000021
000000CB
000000AD
000000F4
00000022
0000000E
000000F6
000000F5
000000EF
000000EB
000000E5
000000C6
0000009E
000000BB
000000CB
000000F0
000000F7
000000DB
000000D5
000000E3
000000E0
000000F4
0000000E
00000013
0000001F
0000001E
00000027
0000003E
00000031
000000F3
000000C8
00000012
0000001F
00000015
00000007
0000000A
00000004
00000013
00000007
000000D4
000000E6
000000DA
000000E5
000000EE
00000008
000000F4
000000CC
000000E0
000000FC
00000012
0000002C
00000021
00000026
00000022
0000002B
0000003B
0000002A
000000E7
000000F4
00000018
00000022
0000001E
00000016
0000000F
0000001A
0000001B
0000000F
000000EE
000000D3
000000F5
000000E7
000000E0
000000FA
000000F1
000000DF
000000F5
00000020
00000021
00000025
00000027
0000001B
00000016
00000024
00000033
00000017
000000F4
000000F3
00000008
0000002C
00000032
0000001E
00000027
0000001B
00000008
00000003
000000EB
000000DC
000000DC
000000CE
000000EA
000000E3
00000000
00000019
0000000D
00000013
0000000E
00000018
0000001E
00000028
0000001B
00000017
0000001E
00000000
000000EA
00000008
00000028
0000002E
0000002B
0000000F
00000009
00000004
00000003
0000000A
000000E4
000000C0
000000D0
000000F4
000000E2
000000F6
000000F1
000000ED
000000E1
000000DC
00000000
00000006
0000001A
00000025
0000001A
000000FA
000000F8
00000009
00000002
00000017
00000033
00000030
00000022
00000017
0000000F
00000008
00000004
000000F5
000000E8
000000D7
000000C4
000000D3
000000EC
000000FC
00000003
00000005
000000D0
000000D5
000000E1
000000F7
0000000D
00000011
00000009
000000FB
000000ED
00000003
00000017
0000002C
0000002C
00000022
0000000F
0000000C
000000FD
000000FF
00000004
000000EB
000000EE
000000C9
000000B8
000000DF
000000EB
000000E3
000000FD
000000F3
000000D5
000000E1
000000EE
000000EC
000000FB
00000002
000000F1
000000DA
000000F1
0000000D
00000010
0000001D
0000001A
00000012
000000F5
000000F6
000000E8
000000FE
000000EE
000000DA
000000D7
000000CE
000000A6
000000EE
000000E7
000000FA
000000EC
000000F1
000000F2
000000EC
000000E5
000000E2
000000E3
000000D4
000000D2
000000CB
000000DC
000000DE
000000F3
0000000A
00000006
00000007
000000F1
000000ED
000000EE
000000ED
000000F1
000000B7
000000C7
000000BF
000000C0
000000E2
000000FC
00000003
000000EB
00000003
000000F5
000000E0
000000D2
000000E2
000000C5
000000BE
000000C0
000000C4
000000DF
000000DD
000000E3
000000F4
000000FF
00000003
00000003
000000F3
000000E2
000000E0
000000F2
000000DD
000000C3
000000DE
000000CC
000000E8
000000F5
00000000
00000004
000000F0
000000DE
000000D1
000000E3
000000B8
000000C3
000000E4
000000EC
000000DF
000000E6
000000EC
000000E0
000000EC
00000003
000000F5
000000FC
000000F1
000000F4
000000F8
000000FC
000000FB
000000E5
000000DC
000000E1
000000E3
000000FC
000000FE
00000009
000000F2
000000D2
000000CE
000000C5
000000D1
000000D8
000000DC
000000DD
000000EB
000000F0
000000E3
000000ED
000000EE
000000F5
000000EB
00000006
000000FF
0000000D
00000004
0000000B
000000F8
000000EF
000000F3
000000E4
00000007
000000FE
000000FF
00000003
000000E7
000000DE
000000C0
000000CE
000000E4
000000F9
000000FE
000000F2
000000F7
000000F6
000000F3
000000F9
000000F0
000000FB
00000006
00000009
00000013
00000012
00000015
00000011
000000F3
000000EB
000000E2
000000F9
00000010
00000007
000000FC
000000F6
000000F8
000000E6
000000D7
000000E4
000000FE
000000EB
000000F3
00000002
000000FA
000000FD
000000F3
000000F1
000000F2
000000EE
000000F7
000000F8
000000FC
00000004
000000FC
000000FF
000000F8
000000F5
000000D9
0000000B
000000F4
00000003
00000001
00000005
000000F1
000000F9
000000FC
000000DC
000000D6
000000C6
000000C2
000000D6
000000DF
000000DB
000000C2
000000CD
000000D7
000000E0
000000C1
000000CD
000000CF
000000C3
000000D0
000000C4
000000E6
000000F8
000000EA
000000F1
000000FF
00000001
00000002
0000000A
00000004
000000EA
000000FD
000000ED
000000E1
000000AB
000000A4
0000008D
0000009F
00000093
0000008F
00000080
00000080
0000008D
00000080
00000086
0000008B
00000095
000000A7
000000BB
000000C3
000000F2
000000F7
00000006
00000004
00000002
0000000A
00000006
000000FA
000000F8
00000005
000000FC
000000EF
000000E4
000000D6
000000D7
000000D3
000000CD
000000D8
000000B1
000000C0
000000C9
000000D5
000000D1
000000C9
000000DC
000000DC
000000E1
000000DF
000000E2
000000F7
00000006
00000003
000000FD
000000F7
000000F8
00000000
000000F5
00000000
000000F6
000000F6
00000005
000000FE
000000F8
000000F8
000000FA
000000F7
000000F0
00000002
00000009
000000F6
00000005
00000002
00000001
00000003
00000006
000000F7
000000FC
000000F6
000000F8
00000006
00000008
00000003
00000002
000000F8
000000F7
00000003
00000000
000000F7
000000F5
000000F2
000000E0
000000F5
000000E2
000000F1
000000DE
000000E0
000000D8
000000DA
000000D3
000000E2
000000D6
000000DD
000000D9
000000F3
00000000
000000FF
000000FB
000000FB
00000007
00000007
000000FA
000000FB
000000EE
000000E5
000000F6
00000001
000000E4
000000E6
000000D1
000000CF
000000D0
000000C0
00000096
00000095
000000C5
000000F7
000000FD
000000FA
000000F2
000000EB
000000DD
000000DE
000000E2
000000D4
000000E8
000000FD
00000007
00000008
000000FA
000000FF
000000FD
00000001
000000E5
000000D6
000000D0
000000D7
000000DB
000000E8
000000D5
000000F4
000000ED
000000F1
000000FE
000000FB
00000003
0000000C
0000000F
0000001B
00000011
00000013
000000FD
000000F7
000000FF
00000010
00000001
00000007
000000FC
000000EA
000000DF
000000C7
000000C9
000000DC
000000DA
000000CF
000000D8
00000000
000000F8
000000F1
000000E4
000000F6
00000001
0000000B
00000011
00000015
00000006
000000F9
00000006
00000010
0000001B
00000022
0000001E
00000008
000000DB
000000FA
000000FF
000000DE
000000D8
000000B6
000000C5
000000DD
000000EF
000000EB
000000FC
00000001
00000000
000000F8
000000F3
000000F3
000000F9
00000002
00000009
0000000E
0000000B
00000016
00000005
00000012
00000013
00000028
00000040
00000022
00000014
00000003
000000FC
00000006
000000C6
000000CB
000000DF
000000EC
000000FF
000000FC
000000FA
000000FC
00000007
00000009
000000FD
00000002
000000FA
00000000
0000000A
00000006
0000000F
00000014
00000006
00000012
0000001B
0000003D
00000037
0000002D
00000018
00000004
000000D6
000000E4
000000AF
000000AD
000000E3
000000F3
000000FE
00000008
00000012
0000000C
0000000B
00000001
00000000
00000003
000000F7
00000000
0000000D
00000004
00000009
0000000A
00000012
0000000F
00000021
0000003D
0000005B
0000000D
00000012
000000F4
000000DE
000000DB
0000009A
00000097
000000D8
000000F3
000000F4
0000000A
000000FF
00000002
00000013
00000001
000000F3
000000F5
000000E1
000000E9
000000F3
000000F7
0000000B
00000010
00000016
00000011
00000035
0000005E
0000005E
0000001E
00000016
000000EA
000000EA
000000D5
000000A9
000000BE
000000D5
000000EB
000000F5
0000000C
0000000C
00000014
0000001D
00000019
000000FD
000000EE
000000D3
000000DC
000000E0
000000EC
000000EF
000000FD
0000001B
0000000F
00000039
00000074
00000074
00000042
0000001E
000000F3
000000E5
000000CC
000000BA
000000E7
000000F4
00000000
0000000F
00000015
00000020
00000012
00000022
0000001D
00000020
00000006
000000E1
000000DC
000000E0
000000D1
000000E0
000000E1
000000FF
000000FF
00000039
00000073
0000007F
00000069
0000000B
000000F6
000000E1
000000D2
000000B8
000000F8
000000F7
00000016
00000013
00000015
0000000D
00000010
00000016
00000019
00000023
0000000B
000000EA
000000DD
000000E1
000000E5
000000D7
000000B9
000000BD
000000BB
000000F6
00000039
0000006C
0000004B
0000000B
000000F7
000000E8
000000E6
000000F1
000000FD
00000006
00000016
00000008
000000F9
000000F2
00000015
0000001A
00000025
0000001C
000000F3
000000EB
000000D8
000000D3
000000E0
000000D2
000000CD
0000009F
00000080
00000080
00000089
00000004
00000027
000000DC
00000008
000000E0
000000D2
00000001
000000FD
00000015
000000FF
00000009
00000000
00000009
00000013
00000019
0000001C
0000001E
000000F3
000000DF
000000C9
000000E2
000000E5
000000ED
000000F7
000000D6
000000C1
000000AC
0000009E
000000D2
000000FA
000000EE
0000001C
000000F1
000000E2
000000EA
00000007
000000F9
000000F9
000000F1
000000F7
00000007
0000001C
00000013
00000015
000000F9
000000F1
000000EB
000000DA
000000D9
000000EC
000000E4
000000FC
000000ED
000000FF
000000F4
000000DD
000000C5
000000DA
000000E9
0000000F
000000ED
000000DD
000000F5
000000E6
000000DF
000000ED
000000E2
000000FC
0000000C
00000007
0000000B
00000002
000000F8
000000DC
000000DB
000000DE
000000EB
00000008
000000FB
000000FC
000000FC
000000F5
000000FD
00000008
000000D3
000000CB
000000E5
000000F8
000000EA
000000CA
000000FC
000000E8
000000DF
000000EB
000000CB
000000CC
000000DA
000000F0
000000EB
000000FF
000000E8
000000D9
000000E9
000000DB
000000F3
000000F9
000000FC
000000FE
000000F7
00000004
00000002
00000007
000000D9
000000BE
000000E5
0000000B
000000ED
000000C6
000000FF
00000002
0000000E
0000001B
000000E8
000000D4
000000D6
000000D9
000000D2
000000C6
000000D9
000000D4
000000F5
000000FD
00000003
0000000B
00000005
00000005
00000009
00000000
0000000B
00000002
000000BA
000000AA
000000E6
000000E6
000000ED
000000DE
000000FE
00000016
0000001D
0000002D
0000000F
000000FB
000000D7
000000E9
000000E9
000000E6
000000EE
000000FB
00000003
000000FD
00000011
0000000A
000000FA
00000010
000000FB
0000000E
0000000D
00000013
000000CC
000000CC
000000E2
00000009
000000D8
00000007
0000000A
00000015
00000019
00000018
00000011
00000018
00000008
000000FE
000000FC
0000000C
00000007
000000F9
00000003
00000002
000000FE
000000FE
00000006
0000000C
00000008
00000008
0000000F
0000001C
000000F3
000000D9
000000F6
00000002
000000DB
00000013
0000000E
00000003
00000011
0000000F
00000001
00000019
00000011
00000009
0000000D
000000FE
00000004
000000FE
000000FF
00000003
0000000E
0000000A
00000004
000000FD
0000000C
00000018
00000015
00000001
00000007
000000DD
00000014
00000006
000000E6
000000CF
00000006
0000001D
00000001
0000000A
0000000A
0000000E
0000000B
00000000
00000009
00000009
00000003
00000009
00000009
0000000D
0000000E
000000FF
00000004
0000000C
0000001A
0000001A
00000012
00000012
000000FE
000000F7
000000F5
000000F7
000000FA
000000B5
00000000
00000017
000000FC
000000EC
000000F9
00000002
000000FC
000000FF
0000000B
00000010
0000001C
00000011
00000004
0000000D
00000008
00000005
0000000B
0000000D
0000000E
00000009
0000000F
00000005
00000006
00000010
000000F5
00000005
00000006
00000005
00000010
00000017
00000009
000000F6
000000ED
00000007
0000000D
0000000F
00000012
00000010
00000003
00000013
0000000F
0000000B
00000009
000000F1
00000003
000000FC
000000FA
000000FF
0000000D
00000000
0000000A
00000010
000000F9
00000002
00000003
000000D7
00000002
000000FA
00000004
000000FE
000000FA
0000000A
00000010
0000000D
00000013
00000017
0000001C
00000015
0000000F
00000009
0000000B
0000000D
000000F8
0000000C
000000FB
0000001E
00000011
0000000E
000000DD
000000FB
000000F6
00000006
000000F6
000000FD
00000011
00000007
000000E8
000000F4
000000F3
000000F7
00000005
00000009
0000000D
0000000D
00000015
0000000A
00000023
0000001A
00000021
00000018
00000011
000000F7
0000000F
00000029
0000002D
00000028
000000F8
00000003
00000007
00000006
000000F8
000000F9
000000FE
000000E0
000000DB
000000CD
000000D0
000000BC
000000DE
000000E8
00000012
00000008
000000FC
000000DF
0000000A
000000F1
000000EC
000000DA
000000EF
00000006
0000000B
00000012
000000F1
000000EE
000000F9
000000F7
00000006
0000000A
00000000
000000FC
00000003
000000FE
000000FE
000000F7
000000EE
000000DC
000000E7
000000FF
00000011
00000001
000000F4
000000AE
000000BB
000000C4
000000C1
000000E2
000000E4
000000E1
000000E1
000000DB
000000EB
00000008
00000002
000000F6
00000006
000000F7
000000F5
000000F9
0000000A
00000004
0000000A
00000009
00000005
00000007
000000F9
000000F5
00000007
00000007
00000014
000000F4
000000FA
00000004
00000008
000000FE
000000F8
000000FE
000000FB
00000007
000000F5
00000002
00000004
000000FF
000000F8
00000002
00000007
00000008
00000001
00000003
0000001B
0000001E
00000031
00000030
00000030
00000029
00000029
0000003E
00000028
000000FA
0000000E
000000FE
00000028
0000003E
0000001C
00000031
00000027
00000016
0000001D
000000F7
00000008
000000FD
000000FB
00000006
000000FF
00000000
00000006
0000001E
0000002F
00000033
00000037
00000040
00000027
0000003A
00000040
00000038
00000021
00000024
00000019
00000018
00000029
0000001A
0000002A
00000027
00000031
00000045
00000028
00000000
000000F0
000000F7
000000FE
00000007
00000004
000000EE
0000001B
00000009
0000001E
00000022
00000018
00000021
00000014
0000001C
00000026
00000005
00000013
0000000F
0000001B
00000001
00000006
00000015
0000001A
0000000F
0000000F
00000025
00000028
00000012
000000F2
00000003
000000FC
000000FE
000000FE
000000E4
000000F6
00000014
0000000F
00000002
00000006
00000008
000000FA
00000000
000000EA
000000E8
000000F9
000000EF
000000EF
00000001
0000000C
00000007
00000009
00000016
0000001F
00000028
0000001B
000000FA
000000F6
000000F3
00000006
00000000
000000FD
00000003
000000E5
000000FF
000000E4
000000E9
000000FB
0000000D
000000FF
000000F6
000000D6
000000E6
000000E2
000000F0
000000F9
000000E8
00000005
0000000D
00000015
0000000F
00000016
00000006
00000016
00000016
00000000
00000001
00000016
000000F7
000000F6
000000F2
000000C2
000000F8
000000EE
000000F0
000000EC
000000FB
000000F9
000000DF
000000E6
000000F4
000000E1
000000EA
000000F5
000000EE
000000F0
000000E2
000000FD
000000F4
000000FA
00000004
00000011
0000000B
000000FE
000000E3
00000009
00000008
000000F2
000000E0
000000CF
000000FA
000000E7
000000D9
00000004
000000EE
000000EE
000000EA
000000EF
000000EE
000000E8
000000EB
000000F0
000000E7
000000DF
000000E3
000000D2
000000EA
000000F4
000000DC
000000E7
000000FD
000000E3
000000E7
00000009
000000EF
000000FE
000000DE
000000C3
00000000
000000E5
000000E1
000000F8
000000F1
000000EF
000000EB
000000E3
000000EF
000000E9
000000DB
000000D4
000000CC
000000D4
000000C2
000000BC
000000D9
000000D7
000000DE
000000B9
000000B7
000000A0
000000D1
000000DF
000000F2
000000F0
000000E7
000000C1
000000F7
000000DE
000000E5
000000F1
000000ED
000000E9
000000E5
000000F2
000000E2
000000DD
000000EF
000000D7
000000C7
000000BD
000000BD
000000C8
000000E2
000000E0
000000D2
000000D6
000000AE
00000091
000000A2
000000E4
000000F2
00000002
000000EA
000000CC
000000E7
000000EA
000000ED
000000FA
000000FC
000000F1
000000F1
000000F1
000000F4
000000FD
000000EB
000000C2
000000C7
000000C4
000000CC
000000D2
000000DB
000000E2
000000E8
000000EA
000000DD
00000095
000000AE
000000F2
000000F6
000000EA
000000E2
000000C5
000000EB
000000FF
000000F3
0000000F
000000F8
00000007
000000FC
000000F4
00000002
0000000A
000000E0
000000BD
000000D3
000000DA
000000DF
000000EE
000000F9
00000006
000000F9
0000001E
000000FC
000000BA
000000B5
000000E7
000000F7
000000F8
000000DB
000000D9
000000ED
000000FC
00000015
00000014
0000000B
00000008
0000000B
00000014
0000000A
00000002
000000D9
000000D7
000000F2
000000F4
000000E2
000000DA
000000F7
00000002
00000029
0000003B
0000001F
000000DD
000000B9
000000DA
00000003
000000DF
000000EC
000000CF
000000E2
00000004
00000023
00000003
00000009
00000001
00000008
0000000B
00000011
000000F6
000000EA
000000FD
00000000
000000F2
000000ED
000000F9
000000FD
00000014
00000021
00000045
0000001E
000000D6
000000B0
000000E1
000000F0
000000EB
000000F3
000000C7
000000BE
00000008
00000014
00000002
0000000D
00000017
00000012
0000002B
0000000B
000000FA
000000EC
0000000A
000000FC
000000E3
000000E3
000000F8
00000001
0000000D
0000001B
00000028
00000010
000000FD
000000B6
000000E2
000000F4
000000FE
000000FD
000000C5
00000098
00000001
00000010
0000000E
0000000C
00000010
0000001A
0000002F
00000008
000000F8
0000000A
0000000D
000000FC
000000F1
000000F6
00000000
00000006
00000015
00000003
00000013
0000000B
000000FD
000000B3
000000D1
00000008
000000F7
000000F9
000000C6
000000B8
000000F8
0000000A
0000001B
0000000F
0000001A
0000002E
00000039
0000000F
000000FF
0000000A
000000FE
000000F1
000000E9
0000000C
00000008
00000004
00000001
000000F3
000000FA
000000F8
000000FF
000000AA
000000DE
000000FF
000000FA
000000F4
000000C1
000000A5
000000F0
000000FC
00000012
00000010
00000024
0000002A
0000002D
00000011
0000000B
000000FF
000000F7
000000F2
000000F8
00000008
00000002
000000FA
00000006
00000001
000000FB
000000FB
000000FB
000000C8
000000CB
000000FD
00000001
000000FB
000000CF
000000BD
000000CE
000000F0
00000004
00000013
0000000F
00000025
00000024
0000002F
00000011
00000007
00000003
0000000D
00000018
00000014
00000007
00000005
000000F8
00000002
00000005
000000F6
00000002
000000D8
000000E0
000000F8
000000F1
000000F2
000000D1
000000D9
000000CD
000000EB
000000FB
000000FA
00000009
00000028
00000038
00000034
0000001B
0000001A
00000013
0000001A
00000014
00000010
00000001
000000FD
0000000D
000000FC
000000FD
000000E9
000000E0
000000D4
000000F0
000000FB
000000EA
000000EE
000000C1
000000D0
000000C9
000000DB
000000EC
000000EB
00000011
0000001D
0000001D
00000031
00000026
0000002B
0000001D
0000000F
0000000F
0000000D
00000008
00000013
000000FB
000000F9
000000F6
000000DF
000000EC
000000E4
000000F1
00000005
00000001
000000EA
000000CF
000000C4
000000B6
000000CA
000000F3
00000006
00000003
00000013
00000019
0000002D
00000031
00000038
00000028
00000010
00000022
00000016
00000003
00000004
000000E7
000000F2
000000DA
000000DA
000000DF
000000F4
00000002
00000004
000000FF
00000003
000000E3
000000B8
000000AA
00000089
000000DA
000000E6
00000001
000000FF
00000009
00000016
00000011
0000000B
0000000D
0000000D
000000FD
000000F8
000000FC
000000F3
000000FC
000000DC
000000BC
000000CA
000000DA
00000016
000000F7
00000007
00000006
000000FB
000000E8
000000DF
000000B9
000000A1
000000A7
000000BD
000000DB
000000D4
000000D0
000000E2
000000F6
000000F9
000000FB
000000E9
000000ED
000000FB
000000FD
000000F8
000000E8
000000DA
000000BE
000000C3
000000D3
000000E5
00000009
000000FD
00000009
00000006
000000EF
000000F9
000000CF
000000B5
000000B1
0000009F
0000008B
00000080
00000092
000000B0
000000A9
000000BB
000000C4
000000DE
000000CE
000000DB
000000B7
000000C9
000000A0
000000C5
000000C9
000000DF
000000FD
00000007
000000FB
000000FB
000000FE
00000006
00000002
000000E4
000000DB
000000D4
000000DB
000000BF
000000BB
000000B1
000000C7
000000DC
0000009E
000000A1
000000AD
000000A9
00000092
000000A3
000000A1
000000CC
000000D3
000000EB
000000E4
000000F4
000000FD
000000F3
00000001
000000FE
000000F8
000000FD
000000FE
000000F4
000000EA
000000F0
000000F7
000000E8
000000DC
000000DC
000000E0
000000CA
000000D5
000000CE
000000C2
000000D0
000000CD
000000CC
000000E9
000000E7
000000EC
000000E1
000000E3
00000003
00000005
000000F8
00000009
00000007
00000009
00000009
000000F8
00000009
000000F4
00000005
000000F2
000000F1
00000001
000000F1
000000F8
000000F2
000000ED
000000E7
000000F7
00000003
000000FF
000000FA
000000FB
000000F3
000000F4
000000EA
000000EB
00000008
00000002
000000FD
000000F9
00000009
000000FD
000000F5
00000001
000000FB
00000001
00000004
000000F7
0000000B
00000001
000000FC
00000001
000000FA
000000F8
00000006
00000003
00000003
000000F5
00000004
000000F8
000000F7
0000000A
00000002
00000006
00000000
00000005
00000005
000000F9
0000000A
000000F9
000000FF
00000005
000000F5
000000F3
000000F9
000000E8
000000DD
000000F2
000000EA
000000E5
000000DD
000000EB
000000FB
000000EB
000000F4
000000E1
000000E6
000000EC
000000FA
000000FC
000000F3
000000FE
00000009
000000F8
00000007
00000000
00000003
00000006
000000F9
000000F2
000000FA
00000000
000000F7
000000DB
000000DA
000000CF
000000C6
000000C9
000000D4
000000C8
000000DD
000000D4
000000D6
000000DD
000000F7
000000EA
000000FA
000000E6
000000DE
000000E8
000000F2
00000005
000000F9
00000009
000000FD
00000005
000000F9
000000EF
000000E4
000000E4
000000DD
000000C1
000000D7
000000B9
000000AE
000000B2
000000A9
000000AF
000000C5
000000B9
000000C6
000000BE
000000D8
000000D1
000000DD
000000D0
000000E0
000000EE
000000F0
00000006
00000004
000000FC
00000001
00000000
000000F7
00000002
000000E8
000000DD
000000C0
000000BF
000000A2
0000009B
0000008A
000000A7
000000B9
000000BE
000000AE
000000AE
00000099
00000080
0000008C
00000099
000000AA
000000DF
000000C5
000000D4
000000EA
000000E1
000000E5
000000F5
000000FA
000000FF
000000F3
00000001
000000EB
00000002
000000FD
0000000A
00000004
00000005
000000EB
000000F0
000000E1
000000E3
000000D2
000000DB
000000D7
000000C9
000000CE
000000B6
00000098
000000A3
000000B3
00000092
000000AF
000000CD
000000E7
000000ED
000000F6
000000FE
0000001C
00000026
0000000B
0000001A
0000001D
00000014
00000019
00000014
0000000D
00000011
00000006
000000F7
000000F2
000000F9
00000000
000000FA
000000F0
000000F6
000000EB
00000000
000000F1
000000B4
000000AF
000000B0
000000C6
000000F8
0000000B
00000002
00000027
0000002D
00000002
0000000B
00000018
00000025
0000000D
00000022
0000001E
0000001F
00000013
00000009
000000FC
00000003
0000000C
00000016
00000020
00000012
00000011
00000004
00000002
000000F0
000000DC
000000C5
000000BC
000000EE
000000F4
00000024
0000001E
0000002F
0000000F
0000000E
00000020
00000023
00000014
00000012
00000009
0000001A
00000020
0000000B
00000016
00000016
0000001F
0000001E
00000019
00000006
00000009
000000F5
00000002
000000EE
000000D3
000000AF
000000B3
000000EE
00000011
00000028
00000016
00000026
00000024
0000001D
00000011
0000000C
00000001
00000009
00000009
00000008
00000018
00000016
00000024
00000021
00000028
00000025
00000020
00000018
0000000A
00000016
00000003
000000F0
000000D1
000000CB
000000F1
0000000F
0000001A
00000015
0000002B
00000029
00000028
00000013
00000008
00000009
000000FE
000000F7
00000008
000000FA
00000001
00000016
00000028
00000035
00000043
0000002D
00000028
0000001F
00000024
0000001A
00000008
000000E5
000000C5
000000D3
000000E9
00000016
0000001A
0000002C
0000003A
0000003D
00000031
0000000F
000000FF
00000009
000000F9
0000000C
00000003
00000007
000000FD
000000FD
00000015
0000002B
0000002F
0000002F
0000002A
00000012
0000000A
00000017
00000011
000000EA
000000B4
000000B5
000000D7
000000FE
00000011
00000032
0000004F
00000049
00000030
00000012
00000004
00000011
0000000E
00000002
000000FA
000000ED
000000BC
000000B7
000000E0
00000012
0000002A
00000024
0000001A
000000F6
00000009
00000008
000000FB
000000DB
000000CB
000000FA
000000FD
0000000E
000000F1
00000021
00000044
00000032
0000001D
00000009
00000003
00000000
000000F7
000000EA
000000F2
000000CD
0000008D
0000008E
000000E0
0000000C
0000000F
00000011
00000011
000000F4
00000001
00000007
000000F9
000000EC
000000F8
00000000
000000FB
000000E9
000000E8
0000000B
00000035
00000021
0000000A
0000000E
000000F7
000000FC
000000F3
000000EA
000000DC
000000BC
00000096
000000B4
000000E3
000000F6
0000000C
0000000D
0000002C
00000030
0000001F
0000000C
0000001B
00000016
000000FC
000000E6
000000DB
000000F0
0000000D
000000F0
00000015
00000012
00000007
000000FE
000000FE
000000E7
000000D9
000000D1
000000DC
000000BA
000000BC
000000D5
000000D7
00000000
00000001
00000031
00000035
00000022
00000034
0000001F
0000001E
00000013
000000EE
000000CD
000000D2
000000E2
0000000E
000000EA
00000001
000000F0
00000002
000000EC
00000001
000000FD
000000F4
000000E7
000000CF
000000C3
000000D0
000000E7
000000EF
000000FF
00000003
00000016
00000015
00000025
00000018
0000001C
00000000
000000EA
000000D2
000000B5
000000C7
000000E4
00000007
000000F4
000000F7
000000EC
00000005
00000002
000000F2
000000ED
000000EC
000000E3
000000CF
000000D5
000000F6
000000FF
00000003
00000003
000000F5
00000010
00000011
000000FB
00000008
000000F7
000000F0
000000EA
000000FC
000000FA
00000017
000000E5
00000004
00000008
0000001D
000000F5
00000005
000000FA
000000CB
000000CC
000000D8
000000CA
000000D9
000000E7
000000F0
00000007
000000FF
000000FE
000000F4
000000ED
000000EF
000000F9
000000FC
000000F3
000000D9
000000CB
000000DA
000000EF
00000019
000000E5
000000FE
00000018
0000001D
000000E7
000000F1
000000DE
000000CB
000000BF
000000D6
000000D0
000000DD
000000E9
000000FD
000000F9
00000007
000000F5
000000E8
000000E1
000000DA
000000E1
000000D7
000000CB
000000C9
000000BB
000000D7
000000E6
000000EC
000000F3
00000002
0000000A
000000EE
000000BC
000000BC
000000BE
000000B8
000000C9
000000DF
000000DD
000000DB
000000DD
00000001
00000008
00000005
000000ED
000000DC
000000D9
000000C9
000000CD
000000BD
000000BF
000000AC
000000C4
000000F3
000000D9
000000F6
000000F5
000000F1
000000E7
000000CF
000000BA
000000CF
000000D2
000000CB
000000DB
000000EA
000000EF
000000E6
000000F6
000000FC
000000F3
000000EC
000000F8
000000F3
000000E5
000000D2
000000D4
000000CA
000000CB
000000AB
000000AF
000000E5
000000E8
000000E8
000000FC
000000F7
00000000
000000CD
000000BF
000000E8
00000003
000000FF
00000001
000000F6
000000E9
000000FA
000000E7
000000F1
000000EF
000000FB
00000002
000000F0
000000E7
000000D4
000000D9
000000BF
000000C1
000000B4
0000009D
000000D5
000000E5
000000E2
000000FD
00000000
000000FB
000000DB
000000D6
00000011
0000000C
00000020
0000001C
000000F8
000000F1
000000F5
000000E6
000000E9
000000F4
000000F8
00000009
000000F6
000000E6
000000E2
000000CD
000000BC
000000BA
000000BF
0000009A
000000DC
000000DB
000000E5
00000009
000000F6
00000005
000000F3
000000F6
0000002C
0000003A
00000038
00000023
00000013
0000000C
00000006
00000006
00000006
0000000B
000000FF
00000000
00000005
000000FA
000000EB
000000E5
000000DB
000000E7
000000CB
000000A2
000000D2
000000DE
00000005
000000FD
00000007
000000FB
000000E0
0000000E
0000002A
00000022
00000017
00000018
00000029
00000021
00000017
00000025
00000021
0000000F
0000001D
0000001A
00000010
00000013
00000016
00000000
000000E7
000000F8
000000F9
000000E2
000000F2
000000F5
000000F9
000000FF
000000FB
000000FB
000000F6
000000E4
000000D2
000000EC
000000F5
00000001
00000017
0000001F
00000014
0000001D
00000002
00000021
00000022
00000028
0000002A
0000002D
0000002C
0000002F
00000002
0000000A
0000001C
00000006
000000F0
00000002
00000005
00000006
00000004
000000F9
00000004
000000FF
00000013
00000012
00000007
00000008
00000013
0000001A
0000001F
0000000B
0000000D
00000051
00000038
00000029
00000024
00000044
0000002B
00000029
00000017
0000001C
00000012
00000011
000000FA
00000007
000000F7
000000F6
00000007
000000F7
00000007
000000FE
000000FB
00000002
000000FB
000000FC
00000003
000000FB
00000003
000000F8
000000F0
000000F1
00000007
000000FB
00000006
00000006
000000F6
000000FE
0000000A
00000007
00000004
000000FA
000000F9
000000F7
00000000
00000006
00000002
00000009
000000F8
000000FF
000000FE
00000001
00000001
000000ED
000000E9
000000DC
000000D8
000000D5
000000E1
000000E1
000000D6
000000E0
000000CD
000000DF
000000CC
000000DA
000000E9
000000F0
000000F1
000000F2
00000008
000000FE
000000FE
0000000A
000000FD
00000007
000000F3
000000F0
000000F2
000000ED
000000F1
000000E4
000000D4
000000CC
000000A9
000000A6
00000080
0000008C
00000080
00000080
00000080
000000C8
000000E8
000000AF
000000A1
000000C3
000000D0
000000C6
000000DF
000000ED
00000003
000000F8
000000FD
00000000
000000EE
000000EB
000000D8
000000C8
000000D3
000000C3
000000DB
000000C9
000000CD
000000C4
000000D6
000000DF
000000DA
000000DC
000000DB
000000DF
000000EB
000000DB
000000DC
000000FD
000000FF
00000016
000000FE
000000FF
000000F9
00000008
00000006
00000000
000000FF
000000E0
000000D3
000000C0
000000BD
000000E5
00000000
00000006
00000001
00000000
0000000D
00000005
0000000D
00000016
00000006
00000006
00000007
000000FB
0000000A
000000F8
000000F3
000000E9
00000002
00000017
00000011
00000009
000000FB
00000001
000000EF
000000D8
000000B6
000000C4
000000ED
000000F3
000000F3
000000F4
000000EB
00000007
0000000C
00000012
00000010
0000000C
00000011
00000015
000000FC
00000005
00000011
000000FB
000000F2
000000DE
000000F1
00000015
000000F0
000000E9
000000FB
000000FA
000000E0
000000CF
000000C7
000000E5
000000E8
000000FB
000000FF
000000FF
000000F5
000000FF
00000011
00000004
0000000B
0000000E
00000014
00000008
00000001
0000000D
00000010
000000FF
000000FF
00000001
00000000
0000001A
000000FD
000000EB
00000002
000000D5
000000C7
000000D1
000000F6
000000E8
000000F2
000000FF
00000004
00000005
000000FC
000000F8
000000FE
000000F6
000000ED
0000000E
00000003
000000FC
0000000A
00000005
00000004
00000005
0000000B
0000000B
00000009
00000001
00000005
000000FB
000000E8
000000D8
000000C2
000000EE
000000EF
00000005
0000000F
0000000D
00000009
00000014
00000010
000000FC
0000000A
00000010
000000EC
000000F8
00000002
000000FC
00000002
0000000D
0000000B
00000011
00000010
00000015
0000001B
0000000B
00000015
00000016
000000F5
000000E1
000000CB
000000EC
000000F7
00000008
0000000D
0000000B
0000000B
00000014
0000000A
00000010
0000000A
00000004
000000EC
000000CF
000000F2
000000F8
00000003
0000000B
00000006
00000011
00000012
00000008
000000FF
000000FF
00000015
000000F9
000000F0
000000DF
000000CC
000000DC
00000016
00000003
00000008
0000001D
0000000D
0000001A
0000001E
00000011
00000013
00000003
000000F2
000000E1
000000D9
000000F4
000000FF
00000012
00000007
00000011
00000014
0000000B
000000EE
000000D2
000000F0
00000001
000000E4
000000E6
000000D6
000000EE
00000006
00000014
0000001A
00000021
0000001E
0000001C
0000000D
0000000D
00000008
00000026
00000012
000000F0
000000E4
000000F0
000000FB
00000003
0000000C
0000000B
00000023
0000001D
0000000A
000000F6
0000001D
00000011
000000EF
000000E0
000000C8
0000000B
00000001
00000016
0000000B
0000000A
000000FD
0000000B
000000F7
000000F5
00000008
00000024
0000001A
00000001
000000FD
000000F2
000000FA
0000000B
00000012
0000001F
0000001E
00000031
00000036
00000003
000000FD
000000E4
00000004
000000DB
000000D5
00000006
000000F3
00000004
000000F9
000000EF
000000EF
000000F3
000000E6
00000001
00000015
0000001C
0000000D
0000000D
00000011
000000F5
000000F4
00000001
00000012
00000002
00000000
0000000F
00000002
00000005
000000E6
000000DE
000000F3
000000EA
000000D8
000000E6
000000C9
000000EB
000000EC
000000DA
000000DC
000000DE
000000F0
00000015
0000001C
00000023
0000000F
00000016
000000FF
000000F6
000000F7
000000F1
000000DC
000000E3
000000C9
000000D3
000000D1
00000007
000000C5
000000E8
000000E4
000000F0
000000DA
000000D6
000000C3
000000D0
000000D8
000000DD
000000DB
000000ED
000000F4
00000005
00000014
0000001A
00000015
00000004
000000F4
000000F3
000000EA
000000EE
000000E1
000000D5
000000E3
000000D3
000000D7
000000F7
000000B1
000000E9
000000F1
000000E5
000000D3
000000F6
000000C6
000000CB
000000E1
000000EF
00000009
000000FF
0000000C
00000002
00000025
0000001C
00000007
000000FD
00000000
000000F2
000000E3
000000DC
000000D5
000000D7
000000DD
000000E7
000000DD
000000C6
000000B0
000000DF
00000000
000000D5
000000E5
000000CF
000000DA
000000CE
000000E0
0000000B
00000009
00000017
00000007
00000017
0000001D
0000000A
000000F9
000000F5
00000001
000000F4
000000E4
000000E1
000000E6
000000EB
000000E2
000000F6
000000FF
0000009D
000000D1
000000D5
000000ED
000000E3
000000D5
0000009D
000000D1
000000EF
000000F1
000000FB
00000007
0000001E
0000001F
00000016
0000000F
00000001
000000E2
000000F0
000000F7
000000EB
000000FA
000000F6
00000002
000000E7
000000F4
00000006
000000F0
000000A1
000000B8
000000E2
000000F7
000000DF
000000C3
000000C0
000000D0
00000002
000000F5
000000F6
000000FF
00000008
00000013
00000000
00000000
000000F0
000000F1
000000F7
000000FE
000000F3
00000007
00000005
00000005
000000F9
00000013
00000011
000000EF
0000009E
000000BE
000000F1
00000009
000000F4
000000CF
000000B4
000000D6
000000F6
00000002
00000013
00000004
000000F6
00000001
000000E6
000000FC
000000F3
000000E9
00000000
000000F1
00000002
000000F5
000000FA
00000002
00000014
0000000E
0000000E
000000E2
000000B0
000000D0
000000EA
000000EF
000000EE
000000CB
000000BF
000000EE
000000FD
0000000A
00000010
00000005
00000009
000000F6
000000FD
000000F8
00000008
00000002
00000005
000000F1
000000FE
00000002
00000000
00000007
00000004
00000011
00000001
000000D2
000000C7
000000CB
00000000
000000FB
000000F8
000000D2
000000DF
000000E3
000000E4
00000005
00000005
000000FA
000000EF
000000FC
00000009
0000000F
00000017
00000011
00000006
000000FF
00000004
00000000
000000F6
000000FA
00000004
000000FB
000000F8
000000E0
000000C0
000000E9
000000ED
000000FC
00000000
000000EC
000000E3
000000E2
000000D2
000000DA
000000EB
0000000B
00000004
00000001
00000009
0000001D
00000022
0000001D
0000001C
0000001C
00000006
0000000A
0000000E
00000004
0000000C
000000F4
0000000A
000000E1
000000DC
000000DC
00000008
00000009
000000FE
000000ED
000000DC
000000B1
000000AB
000000CE
000000DC
00000002
000000FE
00000004
0000000D
00000017
0000000F
00000013
00000013
00000017
000000FF
00000019
0000001F
00000010
000000EE
000000E3
000000E8
000000DA
000000D7
000000DD
000000FE
00000002
00000008
000000F0
000000E5
000000B2
000000AF
000000D4
000000D4
000000D8
000000D2
000000F5
000000F3
000000E9
000000E9
00000002
00000006
0000000C
00000006
00000008
00000001
000000FF
000000D7
000000A4
000000EC
000000CC
000000EF
000000F0
000000FE
00000003
00000000
00000002
000000EA
000000D6
000000BC
000000C0
000000DF
000000E8
000000CA
000000C4
000000CC
000000C9
000000C0
000000C0
00000080
00000080
000000C1
000000C6
00000098
000000AD
000000BA
000000DE
000000F9
000000F4
000000FC
000000F7
000000FA
00000005
00000001
00000003
0000000A
000000FE
000000EF
000000FE
000000F0
000000DA
000000E4
000000DE
000000DA
000000D4
000000DE
000000C3
000000E2
000000DC
000000D9
000000E2
000000CF
000000E7
000000D3
000000E3
000000E5
000000FB
000000F9
000000F6
00000005
00000008
00000006
000000FE
00000000
00000002
00000001
00000005
000000F6
000000FB
00000008
00000007
00000004
000000F1
000000F4
00000003
000000FF
00000003
000000FA
000000FD
00000003
00000009
000000FA
000000FF
000000F9
00000009
000000FC
00000009
000000F8
00000009
000000FB
00000004
0000000A
000000FB
000000F8
000000F3
000000E3
000000F0
000000E1
000000DC
000000DE
000000DB
000000D9
000000E5
000000E6
000000D9
000000D8
000000CD
000000E0
000000D9
000000E0
000000E0
000000FB
00000009
0000000A
00000008
000000FB
00000005
00000005
000000FC
000000F7
000000F0
000000FE
000000F6
000000EB
000000DE
000000DC
000000CE
000000B6
000000B4
000000A8
000000A6
000000A7
000000B0
000000C0
000000CD
000000D4
000000D6
000000EA
000000CF
000000D9
000000FC
00000005
000000FB
000000F9
00000005
000000FA
00000001
000000E3
000000E4
000000F1
000000EF
000000E2
000000D2
000000B9
00000098
00000083
00000080
00000082
00000080
00000080
00000080
0000009C
000000DE
000000B4
000000AC
000000BD
000000DF
000000EF
000000F0
00000006
000000F2
000000FD
00000008
000000F8
000000F6
000000E4
000000FF
000000E8
000000D9
000000C6
000000AC
0000008C
000000B6
000000D1
000000C5
000000D4
000000CF
000000B6
000000B3
000000BA
000000B8
000000AB
000000C7
00000080
00000082
000000C0
000000CD
000000E5
000000EF
000000FD
00000002
000000FD
000000F8
000000DC
000000E6
000000CA
0000008F
000000B3
000000D5
000000D2
000000E4
00000009
00000005
000000FC
000000E7
000000EE
000000C9
000000D2
000000D4
000000DD
000000D9
000000CF
000000A6
00000080
0000008A
000000B9
000000D3
000000EC
000000FD
000000EF
000000D7
000000CD
000000BD
000000A1
000000B7
000000D4
000000DA
000000FA
000000FA
00000011
0000000F
00000018
00000025
0000001E
0000001F
00000017
00000015
0000000B
000000FC
000000FA
000000D2
000000B9
000000BA
000000C9
000000C9
000000E2
00000003
000000E3
000000D5
000000BE
000000A9
000000AE
000000DA
000000DF
000000F8
00000001
000000FA
00000001
0000001B
00000022
00000031
00000032
0000002C
00000023
0000000B
00000002
00000003
000000FA
000000E1
000000D4
000000B9
000000C0
000000C1
000000DF
000000EE
000000DA
000000C2
000000A7
000000BF
000000CF
000000E6
000000DB
000000FA
000000F1
000000F6
000000FB
000000EF
0000000D
00000022
00000019
0000000E
000000FD
00000001
000000F3
000000F5
000000FC
000000F3
000000CD
000000CF
000000BB
000000B6
000000E6
000000F4
000000DD
000000BB
000000D2
000000CE
000000EF
00000000
00000001
000000F8
00000007
00000002
000000FC
00000005
00000000
00000004
00000010
000000FB
000000FA
000000FC
000000F4
000000FB
000000EE
000000E4
000000D6
000000BA
000000B0
000000AA
000000E7
000000ED
000000EC
000000B0
000000D6
000000E9
00000011
0000001D
00000001
00000016
00000002
00000012
0000000D
0000000E
000000EF
000000FB
000000ED
000000FA
00000005
0000000A
00000000
00000009
00000003
000000F3
000000E0
000000B8
000000C8
000000AA
000000E6
000000DA
000000C8
000000BE
000000D6
000000F7
00000015
00000012
00000014
0000001E
00000019
0000001B
00000014
00000000
000000F3
000000F6
00000003
00000014
0000001A
0000001A
00000016
00000023
00000019
0000000D
000000ED
000000C8
000000B6
000000CD
000000EE
000000F7
000000C1
000000C8
000000EF
00000019
0000001E
00000027
00000018
00000011
0000001B
00000019
00000001
000000E7
000000F9
0000001B
00000016
0000001B
00000028
00000027
00000022
00000029
0000002C
0000001C
0000001A
000000B3
0000008B
000000B9
000000DC
000000FD
000000DE
000000B8
000000F9
0000002C
0000002A
00000018
0000000F
0000001A
00000006
0000000B
000000F5
000000E2
000000FF
0000001D
0000001A
00000031
00000026
0000001B
0000002A
00000026
00000024
0000000C
000000DE
000000A1
000000A5
000000CF
000000E1
000000E5
000000E1
000000C0
00000006
0000001A
00000004
0000000C
0000000A
00000005
000000FB
000000F3
000000FB
000000F9
00000005
000000FE
00000014
00000025
00000022
00000013
00000003
00000016
0000000B
000000FB
000000C8
00000084
000000BD
000000D6
000000F3
000000F6
000000F0
000000CA
000000F8
00000001
0000000B
0000000B
00000004
000000FC
000000F2
00000009
000000FB
000000F3
000000E6
000000ED
00000010
00000022
00000015
00000008
00000001
00000003
000000FC
000000E4
000000C6
00000086
000000A4
000000E0
000000E3
000000E6
000000ED
000000CA
000000F4
0000000B
000000F7
000000FB
000000F6
0000000C
000000FA
000000FC
00000009
000000F5
000000E3
000000F0
00000001
00000018
00000016
0000000A
000000F7
000000ED
000000E4
000000ED
000000BD
000000A4
000000AC
000000D0
000000E6
00000005
000000E6
000000D4
000000DB
000000DB
000000E3
000000F9
000000F5
00000006
000000FF
00000004
00000005
000000F6
000000F2
000000F5
0000000C
000000FF
00000000
000000F5
000000F8
000000F4
000000E1
000000CC
000000B3
000000A7
000000B8
000000CF
000000E2
000000FF
000000F2
000000CC
000000CC
000000D1
000000D3
000000EC
000000F4
000000F7
000000F6
00000010
00000001
000000E1
000000EB
00000006
00000009
00000005
000000FF
000000F0
000000F6
000000FC
000000E8
000000DC
000000B8
000000A8
000000C1
000000D9
000000D8
000000F8
000000E8
000000C3
000000D6
000000C2
000000D2
000000F2
000000F4
000000E2
000000DF
000000E0
000000E2
000000DF
000000E8
000000F5
000000E9
000000F1
000000E9
000000F1
000000F8
000000F6
000000DE
000000D2
000000D7
000000DD
000000DD
000000E9
000000F2
000000FA
000000E9
000000D7
000000B5
000000E2
000000F2
000000E4
000000DF
000000D8
000000C6
000000BE
000000BC
000000CB
000000E2
000000E9
000000EF
000000F4
000000E8
000000EA
000000FA
000000F7
000000DA
000000D6
000000E5
0000000B
00000004
000000E7
00000001
000000F3
000000EC
000000D8
000000B9
000000E3
000000FF
000000EF
000000E4
000000E9
000000EB
000000E4
000000E4
000000DC
000000EE
000000E9
000000F0
000000EF
000000E5
000000E1
000000EC
000000E6
000000EE
000000E4
000000F6
00000017
00000003
000000E5
000000FA
000000F3
00000002
000000CE
000000F5
000000EC
000000D5
000000DD
000000E2
00000002
000000F0
00000004
000000F0
000000FC
000000EA
000000F1
000000F0
000000F9
000000E4
000000E4
000000D5
000000F9
000000F0
00000007
00000011
00000018
000000F5
000000E6
000000F8
000000F7
00000001
000000DC
000000F3
000000CB
000000E5
000000EB
000000EF
000000F9
000000F3
000000EF
000000FC
000000F6
000000F1
000000F8
000000EC
000000EE
000000F7
000000ED
000000F3
00000002
0000000F
00000020
00000018
00000015
000000EA
000000DF
000000F9
00000000
000000F8
000000DB
000000CD
000000F5
000000FB
00000000
0000000D
00000003
000000F5
00000008
000000EA
000000F4
000000E7
000000DD
000000FA
000000F5
00000006
0000000B
00000010
00000015
00000020
00000027
00000024
000000F2
000000F4
000000F9
00000005
00000008
0000000B
00000017
000000D4
000000F0
0000002F
00000020
0000001D
0000001E
0000000B
00000011
00000005
0000000A
00000009
00000011
00000008
00000018
00000018
0000001D
00000020
00000046
0000002F
00000014
00000005
000000F8
000000F5
000000FA
00000000
000000FF
000000FA
000000F5
0000000B
00000030
00000033
0000003A
00000036
00000032
00000029
00000030
0000002F
00000032
0000002C
00000049
00000026
00000022
0000001D
0000002B
00000017
00000024
00000017
00000003
00000002
00000010
000000F5
00000000
0000000B
000000F5
000000FF
000000FB
000000FE
000000EC
000000E0
000000F8
000000FF
000000F8
00000005
000000F7
000000F0
000000F0
000000C3
00000001
000000EE
000000D9
000000CC
000000F1
000000E7
000000F6
000000F0
000000F9
000000D9
0000000A
0000000A
000000FA
000000F9
