3983B582
CC7211F8
CA631025
C99CD035
04B9653D
62F7065F
D0440ECF
C92851C6
FCD2D841
5CC459FD
3741B4C1
B3D4E899
3863EEDB
E6938BB6
87CCD0E0
68AF35FC
BB272B62
73FF5AAB
6907F1A0
F5754BB2
4F2E6696
AC30CF7A
152FD086
5FAEA332
70954EC2
EDD024EE
2DE3483D
3DCE38CB
858ABA35
9E8CD527
2CCED0C1
211573EF
6356F0A4
7923E089
4074BE32
7F960853
8A975530
BE6D3612
3B0196F6
6BF1A84D
8340F3DD
65FD6E0C
DAA77150
3C543738
517343E7
F2219F1C
90DD412F
83B9BC15
DDA144CF
FD4BA596
B836B5DC
0FF3FDA2
FFBBFBA8
3AF38F41
D1DD8798
02E4001B
371B7952
D060000E
4DE82170
FD4D9C8C
6EECF787
6412B7F7
D0DF3E1D
EF69E189
F976A91F
838926F0
8EBAA8EF
143935F1
FCEDD06E
BF1E9D4D
8E13EA7E
2D5944F2
590D1035
995224C4
1605C5A5
8E3D3940
AE92A256
178FE3D1
2359C305
B5FE948F
E9C7B093
2B328685
BB42BAB1
F2461C87
90B61A08
B79E1731
E06CD794
2F51F32A
FF355F14
45BDCBE5
09FEAD65
FEFE575D
5CE1E23F
B8A524A3
4A5A6E9B
3FDCF31D
4721EF3A
E59489DA
63E71338
0F70C19D
6C26B9A0
077E511E
BA6F306F
77D12990
4CA08AF5
3D2222D2
69E680F2
5B5B7933
1D4C4E43
8098870D
E52553DC
0C6132C6
EC5E82FA
AAE5933E
B5F6B33C
0DCA6D9A
382A38C3
54D88A65
443375E6
4F14995D
A8154CA8
198504D9
7EB81F42
162334F2
204080D9
81760F72
CF40D348
A1A215D2
14A0210E
48955130
8DA3A089
252CA28A
3C056262
71D63E62
764814DE
1446E329
65DD90F1
1CC9A24C
3F96082F
F9250F16
F1A7D1E7
21E7BC71
FF5FE289
3F6AB1FB
6665AEAD
4E394BCC
2A8FB3B8
71FE2372
C459B074
072DC248
4A01829B
9A05B512
F3F5A7C7
B4660B31
566DB9CA
180F358D
159FBFF7
E71F1C95
71DA6E32
B496FE38
E4DBACB6
5A312D3E
83667238
5454A3A8
6E80E3CD
BB244555
3AA8273F
CDCDEE8F
D9B93421
FEB6691F
2B2D609A
895D2443
F928CE12
5032D4E6
6DA2514F
0FA66192
B6B86AD2
3C39C653
8C4205A3
B9D70936
29AE83B5
D2AAEA21
07CE9F67
5EBDFEDC
4CC50016
BB968992
9469F2BD
9F4D1FA1
A05F26D2
4DE07579
10F5D423
A22D6E3E
929976F2
B9E4F676
E9B5E87F
6989ED0E
9A990C71
DC78D000
C3E6F772
38BBD780
444FBA5F
9BD96B20
894E2C74
A9CB6080
F0989B8B
FDF099D2
7415CCE8
45325BB0
32D964A3
1BCEBE1D
155C3888
DED04E93
358CA51B
623B9FE3
4C0F1047
F99AFE7C
DD912E39
117EA7F7
2E67B766
44A9C688
7CBCFECF
D26DBF6B
EA440160
BDE7D792
C47A299A
31C15882
6BE52578
0310A4A9
335ADFD9
6C16C6BB
44206A97
7955CD87
F8828FAD
7B302292
57FFB4D4
767DA685
BE010881
FE231155
95165A95
DA9CE2AA
0C6FA0A6
0ABD2E65
E2EE25B2
2BDA209C
3F0F9F8B
C0DE3997
2BBA4273
12438047
FCA0DBBB
73A6721E
3003E5AA
51354BCE
1F2A99A4
ABF43AAD
5B8DB925
7853A446
C2032050
7FD29DB6
83DE4E6E
F3A3CA1C
22D523C0
70EB7150
E57D019D
6E957AF5
BED0B494
960FB827
1CE9DE43
5C11D150
9100A147
7D93760E
8C246BEC
552A197F
059CD9DC
31A2C70A
C98658D0
B7A6B599
A8DBD94D
1E1F3FE1
E642ED82
C335BEE0
2156D9FB
E89629D9
20B16505
86877D24
D3E4D1CA
B2434B3E
1BA96BA5
5A0E0367
AE19F601
CCEC0ECA
05704126
7241ABD8
B9165A64
612AC209
9DB92E6F
62FCAE1C
D4C7F65E
28EA3CA4
57657DBC
BA2DBBB4
F70963E9
F1F7BA65
EB62C8B1
CC42D405
F126D849
5EF30CA8
E71489C6
D48F7BFB
3B3B92A9
3181787A
0B688FDE
7F0085F0
9CC3F32D
878D34F2
14344ACB
01477876
E1166581
01446C18
4BD8E988
C0C78DAE
7081CBFD
C7F45E18
4462151D
5A78D84B
D6E0F2DD
E516A8CA
AF9E39BF
C655C74A
06D0CA8F
08CA2E75
48858D4E
D88021DA
37B9D267
FD532866
72BADBF3
5A756C68
E773256E
DBF5D21D
1C6F48D1
746CC436
0FCD5658
E4CD5E7A
1ED71F74
9C9019DC
DD812C94
FC1659F7
02631948
29C7514D
5322F95F
A0D542B1
759765D4
3E80677D
A7670ED4
A82B6056
6EC0C95D
FC9C40EC
D7D3B442
5842AC89
D72CA855
D56D55F4
4C74B2B4
88516D5C
F4781A82
FE0E9D7C
409017CC
6BE85683
6325B9A6
0D96C5A6
B5F3D112
AC78F287
976B96A1
EC544D4C
1E16A9CE
252FC6C8
B19074FE
5CD6C1DC
63EBA729
AB733386
0C366DB1
FFC14055
245561AA
CE29F2B7
7746D681
6243ABAD
386AE8AE
FB67816F
0AA3E716
690D3B22
A224BD00
DEB59EC4
E65EEC3F
D8D35001
82FB86A1
0F87F745
DB4F9C15
19E8CE2F
3F83C8EC
72E0998B
F9933EA4
108774AC
BB2B79AC
24796A68
B9D421EF
E3F52B3D
F85DC6E7
42BC3DF0
F9422B9D
F5E4824D
DCC5FE2F
0956FB8B
9CB8530A
F1AE906F
48F53CA0
48D2B5E9
D8693852
03DEAE06
0F9D87C2
36646BF8
2E339997
73D3D2B3
3AD92E03
D4A279B3
F40BBF1E
C8696690
C419E440
9CD0E450
11275B42
60637034
51C44A96
4F52182B
E0973AFA
6705B7C9
B2F7FB69
CC1CC7C1
5BE7394F
3908B35D
3B5E23CA
5D568A94
0EE31BBA
E237262A
8CDA1BE7
5CC8A625
2DD3D01C
508ACB0E
2D8EC2B2
29750513
F88219F3
28CCA296
E025B165
6720C63F
BD5BB1BE
A37868AA
FEBE7E82
2F9A0608
F87BD58F
15151162
424569CC
BBA1140D
148E82BF
85CC2DDA
139B64BF
45BD6B61
5138E266
2464F0E8
DD821908
BACD5D5D
01F9F688
2C1D81D6
67027C14
39F2541A
DC121F94
7665875C
EA1372B0
F460256C
8C94B092
59912865
0C473E09
0F615998
B330035B
9C1F6DE1
3158D550
40AF6548
60C0B26E
7893C8DA
E1C52BA1
69BF72A7
715D26A4
2BA8CA6D
26EBC4ED
3A038BE8
