050803F6
FF09F80B
0000FDFB
03F2F4F7
F704F902
0309060A
F804F801
0B07F90A
F30402F5
07E8FAEE
15E6040E
ECE40F09
F803DAFA
03FA0705
08F80509
F3E7ED19
E1B0D5D8
A4B8C8D8
C09DA9BA
DACBBCB3
FD0002E9
000A010A
DCD9EDE2
E9ECE7E5
FDEF03F2
D4DBECFD
EBD0CCD4
04F6F1F7
FBF909FE
F5D1DDDD
05F308FF
F8F306ED
F6F70600
F9EFE8FA
F3D7D9D3
ECE9FD08
FAECCFCC
01FEF2FB
031704EF
0F100D0C
DD0000F3
EBC89FD8
D0EFF3F8
F5FCEDD7
F600E5EF
040415FC
0B160E14
EE1C1900
DFB293B9
E3E4E6F9
F804F1BE
04FFFAE7
0F030507
111B200E
0C060207
E1A590E4
FC01E51A
FBECF2C2
000700F1
110D0905
0F1B1F26
1E0C0609
DDA084F8
0618E8EE
EBF6FAE5
FC0006F6
FD11100A
131B270E
20FC050B
E3A18F11
0A0BFFFD
EEF4F7FA
F5F1FDF8
F6000205
132314FC
28170E11
F1B5A60D
F0ED0EEC
09F7F2D9
FFF3F7FF
B4CDF2EC
08FCF3BB
1C1B2116
F6ABC423
EEF904F4
FA16FFED
03F5F2F4
9FBBDDFF
FEF3E3BB
1E1D0EFE
E7C1F13A
F1040103
191604F7
04000902
A3B1CF00
FAF6E9B2
281702F0
E5D01323
D3F6F8F3
23170DF5
0D110C19
9F9CD102
E8F6ECB0
1E0E0A03
E7D5FE21
DCE1FAFC
1A091F00
11151717
B88CC0F6
F3FBEBC0
160D0E09
DFC5F723
DFE3FBFB
1D0A1E08
0524151D
CBA897D3
0B01EBD5
140D0919
01B9E009
E6E2E50A
0A1519FE
0A281B10
D0B2ACE4
FFF409F3
FD110A0B
00C6DCF3
C8D4FEEC
0F03F6F2
012A1816
E3C1C0E2
F404FAF7
001306F3
D9E3DBF4
E3F91907
0EFF01F3
16230A06
EEEAF00D
FCFD02FA
F90700F4
F0D1C7F8
D6F807F6
010A05FD
2F280D08
03FB0E1A
F3F3FCEE
ECFF03F7
FBDDCEEB
F2E9F601
010001F2
171CFD04
04061014
E5E3EDF5
E300FBED
120AD9DB
D2DDF903
0806F4C6
140E0504
0B161D15
F6F2F806
FDFAF7F4
0217DEE2
C8F400F9
FDF0E8C1
1923120B
061D1E26
CFDBFE04
D4E6DFD2
0AEBEFD8
EFE4FFFF
D7D3E5E4
FD01F2F7
F9060816
BFCCF0F0
C2D1B2B0
F6FEF2C5
F1EDFC01
B4BBC8E5
BC9AA2AC
8DA0A29A
A4ADAEA2
D6C7BAB6
0B0405D8
F504FF0B
D4CCE9E9
B8A4A4B4
BBC1C2B2
D2B5C7B4
E3EBD4D5
0703FFFE
F6080001
EA01F5FD
E4E7EDEE
E0D3E6EA
EEF2F2EB
E4E0DDEE
FEF6FD07
FF03FA08
0B02FDFF
F7FBF906
01F7F204
0406FE02
F9F802FA
08030504
05F602FF
EEFDFFF6
ECECE8E9
0814F1DF
FBE5D9E2
FC00F1F5
090A05F9
FDFAFB05
F2F8FDFE
E4C5E9DF
2D1806F0
F0EFFC23
E2E0DFE6
000207F2
0910F6F8
CDDBEAF0
BCC6CFC6
FEE7F5D6
D7D0EAFD
C8C7DDD2
F8F0E1C8
F719F703
F3030F05
E4F0E7F3
070606EF
0AFFF0F6
ECEB0307
EECFC2C0
0D1B08FE
E4061324
D8DCDAD7
FEFBF3EC
F6F2E3F2
0E10160D
EBE1B8FB
FBE7F307
E3ECEA14
E6DED2DA
DBE5EFE1
EEFDD7E0
01FFFE06
F7CF95E3
DFE1E205
E7CADC01
E2E0DCD0
DBEBF2EF
FFE6E1E9
DFF0FDFC
DBCE99C1
E1F2DE02
E8D3D6FC
EAE1CBD1
00FFF9ED
F3EE00F2
B8E3E3E7
E8DAA49F
EAF3F2FA
F4D2CEEB
FEE5D7ED
2D2003FA
E1FD0A0D
B0C4E6D2
F5C79EAD
E3EA03F5
DFC7C2E6
F7EFE5E2
444214FC
F3E60721
A5C0E4D3
0CD6D987
DE0B14FE
DAC1D5F7
E7EDE2E8
4A4D1AE6
ED02F120
D5D4DBEF
0CE8F2AA
F2E5F7F8
EDF8DE0A
CED5EFEB
364A26E8
E8F0F909
F4E8F8E0
06D7E8C0
1CEFEC08
EFFCEE00
BAB4DEFB
3B492ADD
CCEB1012
C8D5E6E0
FAD3CDB7
1B09F8FE
D6D6F220
B5B6D607
35452CFB
C0CCEF0A
E5E6DED3
F403E5ED
131B00FF
ECBAD604
E4D1D304
1E3D2800
A0B2CE02
B0CDD7BC
DAD9DAC5
E5111906
D3BBD4DF
EDEEEFE8
FD442CFC
B9B4AFE1
BFDCD8CF
DAE6C2EE
E8F90F0B
C7B7C2E2
DAECEDE5
F9292405
DBD9B5CD
F0F2F3E3
DDEFDEE8
E7EF06F4
C694A3B9
E9F4FCF0
EC1C1B09
F4FAE0D5
F2E7FF07
1C0BFFEF
DAFC010F
F2CF95B4
01F300F5
00050FF8
1C0EF7FF
F3F60808
1B01030B
EDDCFDFB
FFF4C4E3
09080308
F5F6F806
1B1E1A14
EFFA090C
14050A00
0BF30310
031D1F0E
EB110812
1001E7EF
0C210B0F
DCE11413
0BF80D09
F9F10D13
131C4A1B
DDF200FE
FCF9DAD1
11261905
DCD2F918
00121005
E6F5FBFA
05252FEC
E4ED04F9
0DEAEBF9
FF012902
C4D7DA00
F71409E0
E5F9FE05
EFFFFFC6
D4E0E7D7
D9D5DCDC
0D03F4C1
E0DCEBEC
080710EA
DFF808F9
ACB5AEC6
8488B3CA
9EB8AEB8
A4809380
E3E5DBC1
0103F0F2
EEFF0609
D2CDD4E2
BAC3B8B5
C6A7AFA3
C4D7AED1
EBDFE8DB
FF06FC00
02F90B0A
FDF0FDF6
E3E9F3F7
FDE1DCE0
F4E6F2EC
FBF803F9
08F6FCFB
FC080404
FDF809FD
FD07FFFA
0916FEF7
F902F703
090AFC08
FF0108F5
0A070108
EEEAF5EB
CCE1F7F1
01F6D3C3
D0D70830
F2EAE2DA
05F6F6FD
E8FD0805
E4EDF4EC
100811FA
070DFE14
E4FC0215
F6CBE6DC
FE000711
E5F60306
11F6F1D8
241C2703
0B15232A
E7E80718
B4D6DDDC
03F10CFB
EAF7F20B
051D07E0
131D2412
08131021
ED040307
ADC8D3F6
EDEFF1C3
04070104
110EFDFE
12150716
0F181419
FF0A1A21
D5F4F8F8
E3DDE5BF
F9FFFCFE
1109081A
01051107
10090A06
FBFC020C
BCE8F8F3
EDD6CCAB
09FFDAF6
0C150E1C
12FD0B07
00070AFC
F8F6EEF4
C6F901EF
DFC9D2A5
FA0201EA
FF000A26
0A19FD09
0B0CFD02
02FAFF04
F1FAF404
DDC38389
08F0E2FA
03FF1C16
090F07F6
120C0807
03010A06
EDEEF9F9
EEE18D83
12F5E5FB
EB121BFB
F1E9EDF5
EEEEE5F4
040E0604
EFEDFFFC
E1F5D8BB
EFE1E5F2
D7DD02EF
B2BBC9C5
D2BEA6A7
0AECE2E1
E8F7FBF6
F10D05EB
D9D8EBFB
949DCCE1
BDC1C2BB
CFBCBDC2
05F5E4DD
D9E9F1FA
163036FF
D2F3E1F6
A995A1A9
F3DED1C1
DBF4FAE9
F1EDE7E6
E4F0FCF4
264A4D29
DEE7F3EF
E6D8B6C1
03FFE9EF
F4010AFE
EBF7EAEC
F5EFE5FE
22543D10
05F7F600
FF031004
05FCFFFB
020A0C00
00EDF9FF
F0E4F9F0
2A51482F
1EEFECF5
FA201915
0F0DFEF3
FD081A20
F6090B0C
110108F4
294F6A2F
1809DBF5
03122527
1D100C06
09081D21
F604F8FB
050C11FC
31496C2F
12F8E7E6
211A1A1C
1B130606
03041D20
090C1713
2A140FFD
1A2A503A
ECF9EAEB
2307100B
161E0E18
07181F19
030A0F18
21181109
093A5121
0301EDF8
1A071213
16161A17
03030818
140FF60D
121D1A15
F3242826
0C0F00F9
130E040D
081B1104
FFFD050C
1E1A180C
27170E0C
02182A27
04FFF3F3
18170918
0F151423
FBFBFA0D
1A1705F7
14190F17
04F00E1B
E5EFF60A
07F7FAEF
0403050C
F2FBF70D
21150200
1E1A1E1E
F9F71A24
BEE10601
DDCEBDCC
E4E3E9E3
F20302FE
FF1302F8
040211F8
03051E30
DFE5FC02
BFC5A6C8
B7A09796
F5E6CEBB
CED4E6E7
C7C3E0D2
FC120DE9
FB0A0009
C6D5C9D5
D1ADD0CB
B9929CB3
B8A9C7AA
DDC9BEBF
F9FCFD00
FB0BFDF8
F8EDFEFA
F3E5F2FF
F8E4E0E7
E5EDEAF6
F2F0F0F4
08FB0901
060309FD
01FF0AF7
0108F7FC
06FCF6ED
01FC02F7
0AFC0AFC
08FF06F9
02FFF6FA
F6FB060A
E4E4E2DF
D9EDEBE9
F7E0D8D3
FAF8E8F1
060307F5
04FB04FB
E4E2E0FF
F1F5B8D7
D5EFF3F8
D5E7E7EA
DFD1D5D2
03FC05E5
DFEEFB0B
071916F2
1F0A061F
1D1E1727
10191014
D0BCEA1B
0401FEE9
190A1001
202B3020
20231E18
0B0F1F1E
0D0B0A19
A2E4D9F4
EBE6D8AE
250B07F7
20212D25
0A0F090B
0E06060A
03FD020B
C3E7E1FE
EEE3A2BB
1CF80F04
0D1E1620
0F111913
1010150C
FF0D0619
D7F2F4F6
F2E593D6
15E721F5
0D0F2416
F8070E00
150E0E0E
0BFE0AFF
D9E9FAF9
E8D780B5
05DFF8EC
04080A27
0309F7FF
12140304
0B09110D
C204060C
F8D18080
0FF7EEE1
0C07122C
D9E5F9F8
2316FAE1
0F0C081B
EC151118
F1D1A180
3206E0F2
F407FA15
C8C4C6E3
131BFCD2
15181C13
F008121E
F5BBE580
3A03EAD9
C0DDEA12
DBD9CFC4
0C0F06EE
0D080E03
DAE8F715
E0D0F893
0ED7DCEF
D9CBD8F1
F2F7EAD4
0F1212FD
FF0F0BFF
BEB9CAE8
E8DF01AA
F4C9DFF8
CDDCDADD
EEE9EFDF
020F14FF
EEFC0A01
D4C0CCCD
F1DAECE2
070316E6
D2C3D3F1
E9EDEDE0
0A020705
EF0101F4
E2DBF5F4
EADADEE4
F9111CEB
DBEAF2F2
F3EDD9DE
FC09070A
05FFF5F5
120B0212
E2FCAC04
1F2118F4
D7E80219
F6DEE4D2
EBF40C04
1310F8E2
271E170A
E1C0AC2E
2A161CFC
F4FC051F
CEC4C5DB
E2D1E2D2
160C14F7
1718100C
DCC9B1F9
46180BE6
F50B1F23
C6C2CFF2
FCE0C7C8
17171519
0A20160E
DDCC9AD0
36020103
FC0A281A
DCEBF8F8
0BF2EAE1
1C161A1B
020A1403
ECD280E1
3BFAF609
181F201E
E7F30D09
09FEF3DA
0C131304
F8F70F19
E801A0DF
231107ED
08151119
E5F8F10E
0BF8F3F6
14100E0A
E9EFF308
F4E9A1BC
1D1200FF
0309FC19
0504FA06
0AF4F5F9
0C120EFE
E7F6ED05
FAF8E2B7
462505F7
1A191D21
0F0D070A
06F80DFF
071907F7
D7D4EFF7
0015E6ED
300DFD00
25312233
221A1320
03101A18
F2F3070E
E8EFEFDE
FC01E5DA
E8180AF7
353310FC
2E3F4140
0C1A2F36
1100FF13
DDF2E4FC
0B09EEEE
EBFDFEFC
F7FB02DC
FBF2ECF8
EAF0EFE9
0002FDFF
D8ECEC08
F7FAF5FC
02FF05F9
E0EEF005
BDD1DDED
B1BBBCBD
DFCEB4C6
F1E6E8E9
FEFAF6FD
FF010304
09F90505
0502FCFA
F6F0F4E9
FCF80509
01F70706
F60902FF
08FFFBF5
DEDBE0F1
C4D5CECD
C6EDB7C7
E2C5C5BF
E6F0EEDC
FE08FD05
E7FA08FA
C9C8E2E0
809794B9
A8BDAF8E
BB8DCEAF
CCCFD0B3
FFFEECDF
E2FAF7F6
D5DBE6D3
9AA8A0B3
B2AC838B
ECCDCAC1
F9F805FB
01E9DDE3
D50306F9
EFDF0409
D5C0D9DA
C7CDE7D0
0DE9EAE9
2B2E1D1C
E6E4FC1A
EEE2FDF9
EEFF0E0C
ECE6FDFD
FFFAD9F1
1102FD03
310F0004
E1DBEE12
EFDAF4FA
05FE0B10
DBF2F4FF
CECDD5DA
F4DBE0D4
2A1BF9F2
DCFCEA0B
E6D3F302
01F6200D
E1E3F8FC
C9C9D1D8
EDE4E8C2
0E08F1F5
CB09FC02
E8FFE5E5
F9030AFA
ECF3FEE9
CCCDE3D5
F1F6E7D0
F9F9FEFC
EEE1F8ED
C9ECE2EA
F5ECE9E5
F3EDF5EF
CCB4EDF7
FEF9F6F0
E6F1F4F7
DDD8C7BD
CDDAE0EA
FBE6E6E5
01060901
E7ADDB0D
010509FB
CBF5FBFB
E5C3B1BF
E7C0DCF8
06FAF6E2
1E191E09
F4ADCB21
F5F60E22
C6E5EBEF
F0CBBB9E
E3D5DBF7
130EF4E0
3E271E1F
12C8F331
0A07151F
D4071304
EEE5DAE6
E0CCF408
212C12FC
3B2B2226
18F4E72A
0F161E22
EE0F1B1A
E0E7F5D3
F5DFF1FA
27252120
3324161B
08F3F417
271E322C
EB03081B
EACEDCDC
0D1900E3
1E180E13
1E171B28
2808EA00
090F2B2E
E40A0304
E2F4D0C0
E1EDF1F6
1A0600DC
F8FA1A25
33170209
0F172230
E8F50408
ECD3C4D7
D00503FC
0DF7E1D5
EDFB0911
2C2C1703
FD0C0F22
EEEB04FF
EBDFB8C9
D5F3FDE3
FBECEEE1
F1DAF102
1A1D100D
E8F6F512
D7DAEEFE
E7EEA6CE
F2F1ECFA
E3E2E5EC
DCCBD2D4
060AF3DE
EEEDF107
C7B7F1ED
FCE2C0BF
F503EB03
C5E2D2E0
DFC4C0BE
FFF4E3DD
E2F30303
C3DDF2E0
F5E8CCDE
DEF00400
C3B8E3D1
E6DFECE4
03ECE0EC
F4F1FCF5
E5FBFCF8
FCE3E1DC
D2F209FE
D8D1C5CE
F0EBDDDC
F5EEEDE3
0DFF06EB
EFF80B04
FE07E4F3
DEE703FF
F9E4CEC0
F6F7F2FE
FBF0F9F3
12130906
EBF31115
0710F9E2
E6F8F6FC
EBFEE4D7
FDFA02F3
EEF2F1F3
04FCF8F7
F5F8FFFC
03F40BD9
F9F10501
C6D6DCFC
DBDFD6C2
E0D7CDC2
C3CFCDC1
F8E6C4D0
01FFF1EA
EA040A02
ABE1EDFD
939F8DA4
8D80808F
958B8680
F2C3BBA7
020406F7
F8FA060A
E4EFFC05
CDD3D7D6
C9C0B1D8
DCC9D1D5
E2DFE1DC
FD0306F7
F500F8F7
05F6F600
FAF8F8FE
0902F0F7
010205F6
FCF70603
0806F8F6
F7F80203
F5F70003
E2F5E0F2
D8E0DEF1
D6E2D3DA
00F3D9DD
07FBFBFF
EEFBFA07
E401F6E5
D0CFD1E6
C59596C0
F2FAFDF7
E2DEDDEB
07FDE8D4
FDFFFA08
D0D6E501
D5E8DBD7
FEF1EDF4
0F0C03FB
FD13111B
0110FFF7
DFEAFC07
DADCC9C7
F800D8CF
01F6E4F1
0615110B
1B1006F9
DB081E22
D8DEFFFA
EFDDC5B6
0001FCEB
F9F3F3F8
0B0E0902
13120516
14224028
C606FC03
FFECDFCB
07FCFAFC
FA02FD09
0F060A00
1B120614
182D373D
AFE4D604
FEF3E3AD
0B0C1208
F7030001
09040D00
210F120A
120D5B3D
9ADBDEF4
F4F3D897
1302FF0A
E1F5F301
0BF7F3E9
35111610
161E5E5E
A9D5EAEA
F5EBD5BE
1D140C0C
D3EEFD19
EFECE0DC
390F1BFD
1E427474
BACCE5F3
0F00F4E7
22122015
E106201D
E0D1E0DC
39FFFFE1
0B697F73
B8D2E1F6
1316F7F8
16100D15
EA0B2319
D7E5E1DD
F6BBBDB9
0B4B6C39
F1E6E8F7
081606FD
1A15F2F9
EBF31C25
D2E0D3D8
80809FCD
DC270489
01D2E008
09FF15FD
19130900
DFF31E1C
EDE5E2C9
ACC1D6F7
EEFAD29E
EAE2F11C
F1F9F907
131C07F7
EBF1F915
E4ECD9DA
F4FFEDFC
E9DAC5DD
F5DDED0F
E2EDDFE6
0B070CFC
DBDCF802
FB08EBDE
FDF5FCFC
E5CBD308
FCCAEAF8
CBEBDFE8
EBF0DACC
E9D9E8FF
FCF9F3DB
0204F7FE
E5BED907
FFC6ED0B
E81B0E02
D2D9D6D4
F5D4D9C6
050B03FD
0B000905
E6AABA02
FEDEEDE6
0F2D1D16
E9E9D7FB
03FBEEE6
FA0A11FD
0D0EFB10
E2CCCC13
0A07D809
11181915
FCFE0818
03F9070C
06FEFE02
0F08080C
F6D9F31C
0E13DB02
010F1103
0D091119
FFFE04FE
040A0E03
15180CFD
14DD0701
06CFE606
0A0A011D
09000B0E
09090309
04FF0E0D
121A1A0C
F5F7FE12
00B5FAF7
F9ECFC17
0BFFFC02
04111C10
0B05080D
0F090E0D
F5100605
10050605
EDF60917
120F0D07
0F130310
03F1090B
0DFFFAFC
F9100A00
02D70302
FAFE04FA
130D100A
0F151C17
F80D0B09
111EFB0C
F6FBDD0E
11FDF606
F3F4E807
0D0905F7
230A150D
1118211A
2D290FF7
0703F828
FEF9F806
D0CDDBE0
12E8DEBC
0ADFFC08
EFDAECF1
F1120B06
06F7F9EE
03FC000A
EEF7FEFE
11FFE7DC
BBAEF401
E4E2C1C4
EBDBE1E1
06F60208
0AF9F5F7
05090A04
07F5F907
FAF41407
F8FE0804
F507FBFE
F8FF0402
01080702
311E1B03
29293030
0EFA283E
1C3E28FE
1D162731
FBFD08F7
0600FF06
37332F1E
403A2740
19242138
2A1A2918
28453127
FEF7F000
1BEE0407
18221E09
261C1421
1B0F1305
1A150601
28250F0F
FC03F212
F6E4FEFE
06020F14
EA00FA08
EFEFF9E8
09070C01
1B281F16
06F3F6FA
E503FD00
FBE9E4FF
D6F6FF0D
F9F0E2E6
150D05E8
1606160F
16010016
C2F2F6F7
ECF0EEF8
E6DFF9FB
F5EAE1F4
FDE2F0EE
1104FAF4
09E3FE0B
CFE0F208
04D9E7FA
EFEAEEEE
F0EBE8EE
D2E3DFE7
E7DCF4EA
09E7E3FD
C3DEFEEF
F8E1E500
E3EBEFF1
D4DBE9EF
BCC2D4CC
B9DED7D9
DFD1A0B7
C1E7F0F2
F1E5DEF7
F2E5E9ED
D7EFDDE2
C8BDBDC7
D6D2E0E2
E4A291AE
CCEA02F2
FAEDEAE7
F1F1F1FC
C2EBFDF4
D2CCC4C7
EAE8E2DB
F2AE95DD
C5E2EAF6
0FF3FFEB
F4FC07F8
BDE00A02
EEDFDAD3
1EF906F9
E7B5BAFC
D9DBF8F7
1415FCED
140B080B
D7D9020A
DAE2F4F2
3B2902F7
DAB9DD1F
CFECDF03
032304E2
0B080109
FDEAF611
F9EDF200
452114FD
E1B0D61E
C7F3EBF0
021408BE
2B12170D
0AECFA0B
F8E3E3FC
281B0D01
E2B6FD10
C5FDFEF4
0E100198
2F1A100C
0D0AF808
00F6F1FC
13031506
D1B3FD0B
C6F9F708
1B0AF8B8
392E1A0F
FE0AFF0F
080CE9F1
FAF30104
DEAAFFF8
C1F4FAFF
12FCF0A5
2D2A2410
F7FF0B11
0208F8F2
FB0106FA
CBC8FBFB
CFFB01FD
04F0CEBD
24250F13
0307112F
0714180D
0502F805
E0D802F6
D1F2F1F8
FBEBCDD9
382809FA
131A1B34
0110141A
FDFC0DFD
F0D4E0E9
C1EEEAFB
ECDBC9D0
1D1D11EB
1D2B2631
080D0F0F
F6F9FB13
F1E4ECDF
CFEA0105
F3CAB6C4
19130306
2838312D
03162210
DAF2E704
02F4DFDA
E303FF04
DA89AAB8
09FF01E6
0D0B1116
FCF8FD0D
BCDCFCF3
F716DACA
E8FB0607
A7A1B9DF
D0D4DBBD
FBF9F6E2
FDFBEDE9
BEDAE8F8
09E5D3C3
EF0609FD
B1B5CFF9
92808B9F
C4BBA9B0
B7DBCEDE
C9C5A0C9
FB07FDDF
0206FEFB
DBD4DBE4
C7B1BBBF
ADA19EDC
A1A392A9
E4EBD3CC
01F3FDF4
FEFDF8FE
F7F0EAF4
E0DCDCE8
C2CED5CA
E9CCCDD0
E3E1ECE7
09F80503
F8090907
F205F409
F8F101F1
F7E7EDF2
FBFAFF03
EBEAF4F3
F9FD0208
01F5FD09
F70401FB
01FC010B
0306F8FA
F804F503
06020AF7
F9050500
05FFF90A
E8F9F3F5
E5EAF2DD
EBFBEBDD
ECE6E1F4
FEF3FCFA
0007F809
F2F90603
DBF700FA
C9C6CFDA
D4DDC8D4
EAF7DDD6
E8DEE6FA
09F905F2
EFF905FD
C1DDE4E4
B2AEB9D7
B9C5AFA9
D1D8BEC6
EEE0D0DD
FC0406F0
02F70001
BFC0DDE8
A78A9BA2
AEAEBEB9
998C8099
D4C5DFAA
F5E5E1EA
01F3FFFA
0AFD02EB
F0EB0504
DBD2E3E1
B6CEC9D7
92B3A398
EDE7CDAF
261CFEF6
141D1A0B
110D1419
F9F2F706
F6F0FA00
B4F100EB
F8C6B0AF
2D27020B
25180B02
1F1E220D
03FC0913
1220160C
F0020411
EEBCC5DC
2F1E24F4
23200E0F
1A091214
16160B20
06191E1F
EE02F509
EEB3AFD3
26162811
0C111D24
08090901
21241618
18202528
F003160A
0FF1CBD1
292B151A
09081328
FA08F7FE
35281601
1F282D43
E5081A24
16E9D3C5
3D3A2C1A
09FF0F31
07030CF9
2B15FDFD
122A2F2F
EA11170A
FED7B5B4
494F3211
11041230
EDFA020E
12E0B7BC
F61A242A
DBFB0809
0EFDFACB
324421F1
0003091D
CDF2EAF7
0CE08E8D
F411110F
ECF90701
E9FB00F8
21350BE8
FCF70E0A
BCDCEAF3
F6E3B496
302C0D0C
161B0C1F
F0DBE6FC
1215F00D
E7FEFE07
BADCD1D9
00D7D5BC
22353101
131E1F34
E2D2CDEE
F001EA0E
FD01EC02
C3CFE7F4
FFEFE7D0
25151603
EA001C18
E4C7B5D2
ECF7F407
EDF20205
D5CFE3EC
0303FFF6
FB1110F5
EAF0F708
E517FAFC
F51D0804
CCCBFA05
E7D9CAD8
FEFF07F0
F9EFEDF4
CBD9F3FC
E519EFDA
E71D18FE
BFCBDEF1
E9DDD0D6
F507F9FD
E1DAE1E8
BBC9CBD7
F3ECE6D7
BCEE0A02
C9B8BEBC
DDDBDDDF
ED050801
CDC9D9DC
C4ACBFBD
F5F6D9F3
BACFE7F1
DBCBD2CF
F6E6EFEA
F8ECF3FC
D4D2E5F3
AFABCBCA
FCE8E8E5
BFCD00F7
01FF03E8
E7FAE9F6
02FBEFF1
D9D4E7F0
9DB4C1BF
FDE2E5D5
D6DBFB00
1C200C11
E6F5F1F8
09F8F4E9
CDE2E6F6
9ABFBABC
09E5DBDC
F6F305F6
23383A2C
06060C13
00FF0B06
E5EBFA05
A2CBE7DB
FD05DED2
0EE0FB07
1817222A
25172129
1A1D0F21
00161310
E2F9F8E7
FFF9F5F2
E4F6FBFB
01F5ECD2
1D141F17
28222102
2F2C2D2A
061C0A02
060502F0
FF04F904
08071213
0B1F1A13
2938510D
292B4424
11121C17
F6F707FA
FE07F707
FCFB02FB
F803FB03
FB07F1F0
FEF60606
FA04070A
0600F7F9
FFF80902
ED0101FE
D5D8DCE9
E0D6E1E1
DACCDFCD
F2F1F0E9
0AFEFE08
F0F307FD
E4F1EDF2
A6A9CCD4
80808C80
AFE8C880
C6D0C3A1
F803EDDF
EBEE00FD
C3D3C8D8
C4CDC9DB
DCDADFD6
DBEBDFDB
16FFFDDC
08F9FFFE
E0FF0006
E5BDC0D3
00010600
160D050D
FB070606
E9F3F80A
09111702
D8EF01FB
F3EDC4B6
07EBF4F3
0C10120C
05FC1511
DEF2FB11
E9F015F1
CFE0FAFB
FBE8E5C7
FFF5FFFF
0E0B0411
0D010814
01FFFF10
EBFD1A00
D1C7D502
FFF2E8F6
F8FC0504
0EEDF6FE
050AFC03
0B0B0504
FB050109
EEC2D8E8
0D0F05EF
FC101409
F8EC100A
0D02FC02
1510110B
16150B1B
ECCBE1F5
0B0D08F7
100A140B
CFEC040A
0B03F8F2
08121106
F915FFFF
DCCCDFF0
1D080316
111E1A0D
E1F20313
12FFF4D9
0B141107
01F0D2EE
EED6E6E4
211A1406
0D0D1C1E
F0122608
03FBF0E4
1D230B0C
111DF60A
0BC8E0EF
0A0B1601
F5F70BFD
011A2408
0BFAF2FD
311E1F12
E4FD0336
06D5DB04
EFF904F3
01E6F3EF
0D0D1C15
01F4F511
0F000212
DEE60502
E6D8EAF3
DAECEBC9
15F0DEDC
160F231C
F1F7F6FF
D3C9E3DC
E8C507D1
D6DAF0E4
DDD8D0C3
05F4EDDB
04151A14
EEEAF3F4
D3E3D5E1
E9B1F7D7
F6D3E5F1
EFE1CBC6
020CFF09
FD071C25
DCE3F200
E7DDD7D5
DFB0C6DD
CFE5D500
0BE0CEDA
17071709
F5F90A1D
E1E4F401
F6E2EBE6
D5D19DFF
9DD5E3ED
FBF1EFD1
161F1E07
F0E2010F
F6FAEBF7
06F4E702
E2B8A1F0
C0C3DFF7
F6F502D0
001308FF
F7F1F000
0507F3FE
1113F905
F1BE9EEF
B4CFF409
1302F6D6
E601F604
00E9F3FC
FAF502F1
0E0E1402
EAD0B0E2
BFCBEEEF
100AFDEE
FDF60905
050208F8
0002FEF1
01110407
00CBC7D2
DFD2F8FB
0505E4E3
09FCEFFA
0611170F
F60004FF
F8FB04FA
EDE9C0E0
E3EC00FC
EBDAD2E2
0901040B
1C1D221D
0E0A061C
0AF40C04
08DCDCE1
DCEDFE09
DCCEABB1
0D04FE02
13130F17
1F19FF17
E8E3EE10
FEDDD7DA
E5F00802
D4D4AFB2
F3F5D2D8
0602E9E9
0108060C
ECA4D7FF
FEF0EFCC
EA020003
DFC0BCD6
CCC4CAE8
80C0C0C9
98C6C180
F9DEBAAD
FAF7FCF4
0A030105
F0FEEFFE
DADEE4DA
E2C3DED4
CFE2D9DC
E5E3D3E7
05F6F9FB
00FE0608
F6050102
040708FB
FF03F4F1
03FDFA03
F9FFFA09
F809FC09
0A04FB09
E3F3F8FB
DEDCE1F0
E6E5D9DB
E0CDD8D9
FBE0E0D9
FB080A09
F7FC0505
EBF6FEF0
B6CEDCDE
A7A6A8B4
D4CDC0B0
D9CFEAD6
F9FB05FC
E301FA05
E2EFF1E4
8398B9D2
80808280
B4DE9C80
EFDFBDAC
FDF206F0
E4F6F808
C6D9E8FF
D1B68CAC
B6CFD4C5
ABB8BAB3
C08280C7
FDEFE5CD
DCF8FD02
B38FCAE6
09E4D2D5
EEE7FC05
DDD4D2C9
80A6CFD9
ECD3B98A
CDD7EFFD
D4B7A1BD
11FAFADA
1E25180F
0B15171F
B9D2FAFC
E2C9C9BA
BED5E303
DFDAAEA9
01FA01F8
3231221B
020B232C
D4E1FA03
DFC1C0B9
A7C2DAEE
DBE6CFBF
FBF6F1FA
19220DEF
F301FD0E
CDF3FCF5
E6B6BBCF
D2BBDDF4
0100EFCE
FC0207F8
10040005
F4FCFAFB
D6E4EEFB
E7AAB0BA
D6B0ECED
011D11E9
0D120216
EDFBEF0E
000A05FA
E0F30309
E6AAC8B8
D6BEC8DA
141215F7
141B191E
03F6F300
161A1A14
ED0D1923
EECDB6C8
EFC8C1F7
18271E19
01191B11
161BF9E7
2227281B
1A1C2C29
DCB98BB3
F9B8DEFD
0F182A2C
F50B061A
1A1DFFE2
2A1B2631
DE0C2426
E1CFA5A1
06C0E1E5
0A0C041A
FBF3FB05
14FE05F9
03132225
C8FB0B16
F3D6BD84
F8CAF0F6
040B0B01
FB09F2FC
10EDE6F3
01081522
C6E4FC03
E3E0A486
F4CAEDE6
F6FBF70B
09FCFA0C
01F0E3F5
F70A1618
BDEDE4ED
E6D0ACA4
DBD4E605
F5F9E3DB
0504FF06
0CF5F2F6
F8F500FF
B3CCE1F4
E2CFB8A7
CCCCF2FF
F4ECD3D1
0110F6F7
0906EBE1
F6F0FF05
B8DCE8FC
D8D9C1A8
D6C3E8F8
F4F2D2C2
E2E0DFE2
E9F5E8DF
F8F1E9F1
D7D2DEF6
F2E9DDDD
B5D7E9FA
DFE4F2E2
BCBEC6D8
EFE9E2CB
FAEAE8F4
E5D6DAF7
01E7040B
B9D8ECF3
E4EFFFE3
E4E4EBE9
F0E9EEDC
ECE1E5EF
F6E4EEE6
FAE50317
F5CE02F3
E2DDD5EC
F004F002
F0F1EAFC
D5E4E4F9
1107F0F9
F8E6F518
F3DC01F7
EFEBE5CB
FCEFF3F9
ECF8F1F6
F3EDF7EE
18200F02
F9DFEA15
CDDBF800
0D00FBF5
EA08F503
FADDE7F4
100B06F5
24272015
05F9F4F2
D4170B08
1D202FF0
05110B1E
0811090A
201D1818
05142F46
00FAF5F8
0BF5FAFF
363A3330
2F302932
26492C32
172B1D22
02031724
0B00F510
FEFBFFF5
FFF8E0EC
F0F705F8
EE01C3F0
E7F1CCD9
D9F9F0F6
F9FA0A0A
